{
  "version": "1.0",
  "truncation": null,
  "padding": null,
  "added_tokens": [
    {
      "id": 0,
      "content": "<pad>",
      "single_word": false,
      "lstrip": false,
      "rstrip": false,
      "normalized": false,
      "special": true
    },
    {
      "id": 1,
      "content": "<unk>",
      "single_word": false,
      "lstrip": false,
      "rstrip": false,
      "normalized": false,
      "special": true
    },
    {
      "id": 2,
      "content": "<bos>",
      "single_word": false,
      "lstrip": false,
      "rstrip": false,
      "normalized": false,
      "special": true
    },
    {
      "id": 3,
      "content": "<eos>",
      "single_word": false,
      "lstrip": false,
      "rstrip": false,
      "normalized": false,
      "special": true
    }
  ],
  "normalizer": null,
  "pre_tokenizer": {
    "type": "ByteLevel",
    "add_prefix_space": false,
    "trim_offsets": true,
    "use_regex": true
  },
  "post_processor": {
    "type": "ByteLevel",
    "add_prefix_space": true,
    "trim_offsets": false,
    "use_regex": true
  },
  "decoder": {
    "type": "ByteLevel",
    "add_prefix_space": true,
    "trim_offsets": true,
    "use_regex": true
  },
  "model": {
    "type": "BPE",
    "dropout": null,
    "unk_token": "<unk>",
    "continuing_subword_prefix": null,
    "end_of_word_suffix": null,
    "fuse_unk": false,
    "byte_fallback": false,
    "ignore_merges": false,
    "vocab": {
      "<pad>": 0,
      "<unk>": 1,
      "<bos>": 2,
      "<eos>": 3,
      "!": 4,
      "\"": 5,
      "#": 6,
      "$": 7,
      "%": 8,
      "&": 9,
      "'": 10,
      "(": 11,
      ")": 12,
      "*": 13,
      "+": 14,
      ",": 15,
      "-": 16,
      ".": 17,
      "/": 18,
      "0": 19,
      "1": 20,
      "2": 21,
      "3": 22,
      "4": 23,
      "5": 24,
      "6": 25,
      "7": 26,
      "8": 27,
      "9": 28,
      ":": 29,
      ";": 30,
      "<": 31,
      "=": 32,
      ">": 33,
      "?": 34,
      "@": 35,
      "A": 36,
      "B": 37,
      "C": 38,
      "D": 39,
      "E": 40,
      "F": 41,
      "G": 42,
      "H": 43,
      "I": 44,
      "J": 45,
      "K": 46,
      "L": 47,
      "M": 48,
      "N": 49,
      "O": 50,
      "P": 51,
      "Q": 52,
      "R": 53,
      "S": 54,
      "T": 55,
      "U": 56,
      "V": 57,
      "W": 58,
      "X": 59,
      "Y": 60,
      "Z": 61,
      "[": 62,
      "\\": 63,
      "]": 64,
      "^": 65,
      "_": 66,
      "`": 67,
      "a": 68,
      "b": 69,
      "c": 70,
      "d": 71,
      "e": 72,
      "f": 73,
      "g": 74,
      "h": 75,
      "i": 76,
      "j": 77,
      "k": 78,
      "l": 79,
      "m": 80,
      "n": 81,
      "o": 82,
      "p": 83,
      "q": 84,
      "r": 85,
      "s": 86,
      "t": 87,
      "u": 88,
      "v": 89,
      "w": 90,
      "x": 91,
      "y": 92,
      "z": 93,
      "{": 94,
      "|": 95,
      "}": 96,
      "~": 97,
      "¡": 98,
      "¢": 99,
      "£": 100,
      "¤": 101,
      "¥": 102,
      "¦": 103,
      "§": 104,
      "¨": 105,
      "©": 106,
      "ª": 107,
      "«": 108,
      "¬": 109,
      "®": 110,
      "¯": 111,
      "°": 112,
      "±": 113,
      "²": 114,
      "³": 115,
      "´": 116,
      "µ": 117,
      "¶": 118,
      "·": 119,
      "¸": 120,
      "¹": 121,
      "º": 122,
      "»": 123,
      "¼": 124,
      "½": 125,
      "¾": 126,
      "¿": 127,
      "À": 128,
      "Á": 129,
      "Â": 130,
      "Ã": 131,
      "Ä": 132,
      "Å": 133,
      "Æ": 134,
      "Ç": 135,
      "È": 136,
      "É": 137,
      "Ê": 138,
      "Ë": 139,
      "Ì": 140,
      "Í": 141,
      "Î": 142,
      "Ï": 143,
      "Ð": 144,
      "Ñ": 145,
      "Ò": 146,
      "Ó": 147,
      "Ô": 148,
      "Õ": 149,
      "Ö": 150,
      "×": 151,
      "Ø": 152,
      "Ù": 153,
      "Ú": 154,
      "Û": 155,
      "Ü": 156,
      "Ý": 157,
      "Þ": 158,
      "ß": 159,
      "à": 160,
      "á": 161,
      "â": 162,
      "ã": 163,
      "ä": 164,
      "å": 165,
      "æ": 166,
      "ç": 167,
      "è": 168,
      "é": 169,
      "ê": 170,
      "ë": 171,
      "ì": 172,
      "í": 173,
      "î": 174,
      "ï": 175,
      "ð": 176,
      "ñ": 177,
      "ò": 178,
      "ó": 179,
      "ô": 180,
      "õ": 181,
      "ö": 182,
      "÷": 183,
      "ø": 184,
      "ù": 185,
      "ú": 186,
      "û": 187,
      "ü": 188,
      "ý": 189,
      "þ": 190,
      "ÿ": 191,
      "Ā": 192,
      "ā": 193,
      "Ă": 194,
      "ă": 195,
      "Ą": 196,
      "ą": 197,
      "Ć": 198,
      "ć": 199,
      "Ĉ": 200,
      "ĉ": 201,
      "Ċ": 202,
      "ċ": 203,
      "Č": 204,
      "č": 205,
      "Ď": 206,
      "ď": 207,
      "Đ": 208,
      "đ": 209,
      "Ē": 210,
      "ē": 211,
      "Ĕ": 212,
      "ĕ": 213,
      "Ė": 214,
      "ė": 215,
      "Ę": 216,
      "ę": 217,
      "Ě": 218,
      "ě": 219,
      "Ĝ": 220,
      "ĝ": 221,
      "Ğ": 222,
      "ğ": 223,
      "Ġ": 224,
      "ġ": 225,
      "Ģ": 226,
      "ģ": 227,
      "Ĥ": 228,
      "ĥ": 229,
      "Ħ": 230,
      "ħ": 231,
      "Ĩ": 232,
      "ĩ": 233,
      "Ī": 234,
      "ī": 235,
      "Ĭ": 236,
      "ĭ": 237,
      "Į": 238,
      "į": 239,
      "İ": 240,
      "ı": 241,
      "Ĳ": 242,
      "ĳ": 243,
      "Ĵ": 244,
      "ĵ": 245,
      "Ķ": 246,
      "ķ": 247,
      "ĸ": 248,
      "Ĺ": 249,
      "ĺ": 250,
      "Ļ": 251,
      "ļ": 252,
      "Ľ": 253,
      "ľ": 254,
      "Ŀ": 255,
      "ŀ": 256,
      "Ł": 257,
      "ł": 258,
      "Ń": 259,
      "Ġt": 260,
      "in": 261,
      "Ġa": 262,
      "he": 263,
      "ĠĠ": 264,
      "re": 265,
      "on": 266,
      "er": 267,
      "Ġs": 268,
      "at": 269,
      "Ġthe": 270,
      "en": 271,
      "Ġc": 272,
      "es": 273,
      "or": 274,
      "ing": 275,
      "nd": 276,
      "it": 277,
      "al": 278,
      "Ġo": 279,
      "Ġw": 280,
      "Ġp": 281,
      "is": 282,
      "Ġf": 283,
      "ou": 284,
      "an": 285,
      "Ġb": 286,
      "ed": 287,
      "Ġin": 288,
      "ar": 289,
      "ion": 290,
      "Ġand": 291,
      "Ġm": 292,
      "Ġd": 293,
      "ic": 294,
      "Ġof": 295,
      "Ġto": 296,
      "le": 297,
      "ĠĠĠĠ": 298,
      "om": 299,
      "ent": 300,
      "Ġe": 301,
      "st": 302,
      "ct": 303,
      "Ġh": 304,
      "Ġre": 305,
      "Ġth": 306,
      "ro": 307,
      "el": 308,
      "Ġl": 309,
      "il": 310,
      "as": 311,
      "Ġn": 312,
      "et": 313,
      "ur": 314,
      "im": 315,
      "ve": 316,
      "ol": 317,
      "ation": 318,
      "Ġg": 319,
      "ra": 320,
      "se": 321,
      "id": 322,
      "ut": 323,
      "ow": 324,
      "ĠT": 325,
      "ig": 326,
      "ly": 327,
      "ce": 328,
      "Ġu": 329,
      "Ġy": 330,
      "ot": 331,
      "ch": 332,
      "Ġst": 333,
      "ĠĠĠ": 334,
      "Ġis": 335,
      "Ġfor": 336,
      "ver": 337,
      "ul": 338,
      "âĢ": 339,
      "Ġbe": 340,
      "if": 341,
      "ĠA": 342,
      "Ġyou": 343,
      "am": 344,
      "ir": 345,
      "--": 346,
      "Ġcon": 347,
      "ĠS": 348,
      "ay": 349,
      "Ġon": 350,
      "ith": 351,
      "ĠI": 352,
      "ĠC": 353,
      "Ġthat": 354,
      "her": 355,
      "ad": 356,
      "ers": 357,
      "Ġwith": 358,
      "Ġas": 359,
      "Ġex": 360,
      "od": 361,
      "ist": 362,
      "ies": 363,
      "ess": 364,
      "Ġpro": 365,
      "Ġor": 366,
      "em": 367,
      "ag": 368,
      "um": 369,
      "Ġwh": 370,
      "Ġan": 371,
      "Ġit": 372,
      "Ġal": 373,
      "ect": 374,
      "ab": 375,
      "ate": 376,
      "iv": 377,
      "Ġcom": 378,
      "ter": 379,
      "res": 380,
      "ĠĠĠĠĠĠĠ": 381,
      "Ġv": 382,
      "th": 383,
      "Ġde": 384,
      "ity": 385,
      "op": 386,
      "qu": 387,
      "us": 388,
      "Ġare": 389,
      "Ġhe": 390,
      "pp": 391,
      "ke": 392,
      "ore": 393,
      "ment": 394,
      "ac": 395,
      "Ġ(": 396,
      "ill": 397,
      "ĠM": 398,
      "and": 399,
      "Ġsu": 400,
      "ts": 401,
      "igh": 402,
      "ĠP": 403,
      "Ġwe": 404,
      "ive": 405,
      "Ġ=": 406,
      "ĠB": 407,
      "os": 408,
      "ial": 409,
      "ain": 410,
      "ĠThe": 411,
      "rom": 412,
      "nt": 413,
      "oc": 414,
      "Ġch": 415,
      "Ġle": 416,
      "Ġen": 417,
      "est": 418,
      "Ġr": 419,
      "Ġ1": 420,
      "ĠW": 421,
      "ld": 422,
      "un": 423,
      "Ġne": 424,
      "Ġcan": 425,
      "ort": 426,
      "pl": 427,
      "ical": 428,
      "ure": 429,
      "ions": 430,
      "ĠH": 431,
      "rou": 432,
      "ĠF": 433,
      "ĠE": 434,
      "----": 435,
      "ud": 436,
      "Ġse": 437,
      "Ġint": 438,
      "ant": 439,
      "čĊ": 440,
      "ri": 441,
      "ap": 442,
      "ĠD": 443,
      "og": 444,
      "Ġha": 445,
      "Ġby": 446,
      "Ġyour": 447,
      "Ġim": 448,
      "Ġsh": 449,
      "âĢĻ": 450,
      "Ġwor": 451,
      "out": 452,
      "iz": 453,
      "gh": 454,
      "ge": 455,
      "all": 456,
      "Ġat": 457,
      "ĠR": 458,
      "Ġab": 459,
      "Ġfrom": 460,
      "Ġsp": 461,
      "art": 462,
      "ine": 463,
      "red": 464,
      "Ġus": 465,
      "ĠĠĠĠĠĠĠĠ": 466,
      "ard": 467,
      "ight": 468,
      "ome": 469,
      "ust": 470,
      "Ġthis": 471,
      "our": 472,
      "act": 473,
      "Ġpl": 474,
      "Ġtheir": 475,
      "ations": 476,
      "ĠL": 477,
      "'s": 478,
      "per": 479,
      "elf": 480,
      "Ġ\"": 481,
      "Ġ2": 482,
      "end": 483,
      "ous": 484,
      "ĠN": 485,
      "ak": 486,
      "ĠâĢ": 487,
      "int": 488,
      "Ġad": 489,
      "ast": 490,
      "Ġcont": 491,
      "Ġres": 492,
      "Ġwhe": 493,
      "ther": 494,
      "Ġcomp": 495,
      "ell": 496,
      "ip": 497,
      "ide": 498,
      "Ġnot": 499,
      "ĠG": 500,
      "Ġhave": 501,
      "ru": 502,
      "ff": 503,
      "ult": 504,
      "Ġk": 505,
      "ance": 506,
      "Ġthey": 507,
      "pt": 508,
      "ans": 509,
      "ec": 510,
      "ost": 511,
      "ould": 512,
      "Ġdis": 513,
      "ĠTh": 514,
      "cl": 515,
      "able": 516,
      "reat": 517,
      "are": 518,
      "ĠO": 519,
      "age": 520,
      "ib": 521,
      "du": 522,
      "orm": 523,
      "ong": 524,
      "ents": 525,
      "ind": 526,
      "ere": 527,
      "cc": 528,
      "Ġwas": 529,
      "ual": 530,
      "Ġall": 531,
      "ep": 532,
      "ile": 533,
      "ich": 534,
      "Ġimp": 535,
      "Ġte": 536,
      "ks": 537,
      "ence": 538,
      "ass": 539,
      "Ġj": 540,
      "Ġun": 541,
      "ated": 542,
      "ary": 543,
      "Ġwill": 544,
      "ign": 545,
      "ue": 546,
      "vel": 547,
      "Ġabout": 548,
      "ĠU": 549,
      "ction": 550,
      "ces": 551,
      "ie": 552,
      "Ġme": 553,
      "ood": 554,
      "one": 555,
      "Ġpr": 556,
      "Ġli": 557,
      "Ġcl": 558,
      "ry": 559,
      "ach": 560,
      "Ġar": 561,
      "nder": 562,
      "ame": 563,
      "Ġif": 564,
      "Ġdo": 565,
      "00": 566,
      "ear": 567,
      "The": 568,
      "ĠIn": 569,
      "av": 570,
      "Ġapp": 571,
      "Ġmore": 572,
      "ress": 573,
      "ime": 574,
      "oo": 575,
      "):": 576,
      "Ġman": 577,
      "ition": 578,
      "Ġev": 579,
      "Ġinto": 580,
      "ors": 581,
      "Ġother": 582,
      "Ġthese": 583,
      "ber": 584,
      "ice": 585,
      "very": 586,
      "rough": 587,
      "Ġwhich": 588,
      "**": 589,
      "Ġour": 590,
      "ild": 591,
      "ia": 592,
      "urn": 593,
      "ities": 594,
      "ely": 595,
      "Ġcomm": 596,
      "form": 597,
      "Ġthem": 598,
      "ating": 599,
      "ake": 600,
      "ord": 601,
      "Ġout": 602,
      "Ġem": 603,
      "ĠJ": 604,
      "Ġhas": 605,
      "Ġper": 606,
      "--------": 607,
      "ang": 608,
      "ack": 609,
      "Ġhow": 610,
      "ĠĠĠĠĠĠĠĠĠĠĠ": 611,
      "Ġlike": 612,
      "ory": 613,
      "ings": 614,
      "ater": 615,
      "Ġsc": 616,
      "so": 617,
      "Ġro": 618,
      "Ġind": 619,
      "ens": 620,
      "now": 621,
      "ount": 622,
      "ace": 623,
      "rit": 624,
      "Ġtra": 625,
      "ne": 626,
      "Ġpe": 627,
      "Ġunder": 628,
      "Ġup": 629,
      "iff": 630,
      "king": 631,
      "Ġso": 632,
      "ose": 633,
      "Ġqu": 634,
      "Ġpre": 635,
      "Ġbut": 636,
      "Ġbet": 637,
      "ase": 638,
      "ire": 639,
      "arn": 640,
      "Ġone": 641,
      "ious": 642,
      "Ġfe": 643,
      "Ġsy": 644,
      "olog": 645,
      "Ġits": 646,
      "ific": 647,
      "ef": 648,
      "ound": 649,
      "au": 650,
      "Ġ-": 651,
      "Ġcol": 652,
      "Ġstud": 653,
      "Ġbec": 654,
      "Ġalso": 655,
      "ict": 656,
      "Ġhel": 657,
      "we": 658,
      "Ġdiff": 659,
      "âĢĿ": 660,
      "Ġsome": 661,
      "Ġtr": 662,
      "ph": 663,
      "Ġself": 664,
      "ays": 665,
      "Ġ'": 666,
      "Ġwho": 667,
      "ĠThis": 668,
      "Ġpart": 669,
      "ex": 670,
      "ple": 671,
      "Ġwhen": 672,
      "ful": 673,
      "ople": 674,
      "Ġhelp": 675,
      "Ġcons": 676,
      "Ġthrough": 677,
      "ish": 678,
      "Ġtime": 679,
      "uring": 680,
      "ĠSt": 681,
      "round": 682,
      "ob": 683,
      "ons": 684,
      "ond": 685,
      "ail": 686,
      "Ġrec": 687,
      "ys": 688,
      "ally": 689,
      "yp": 690,
      "lect": 691,
      "Ġknow": 692,
      "ough": 693,
      "Ġthere": 694,
      "ove": 695,
      "ates": 696,
      "erv": 697,
      "ures": 698,
      "ments": 699,
      "Ġsuch": 700,
      "Ġover": 701,
      "row": 702,
      "ĠCh": 703,
      "ub": 704,
      "Ġgo": 705,
      "Ġacc": 706,
      "low": 707,
      "ms": 708,
      "Ġra": 709,
      ").": 710,
      "ĠY": 711,
      "self": 712,
      "ite": 713,
      "Ġdes": 714,
      "Ġnew": 715,
      "Ġrel": 716,
      "Ġact": 717,
      "Ġinter": 718,
      "eth": 719,
      "ics": 720,
      "Ġpeople": 721,
      "les": 722,
      "Ġmay": 723,
      "Ġwhat": 724,
      "Ġag": 725,
      "Ġnum": 726,
      "vers": 727,
      "pect": 728,
      "ract": 729,
      "ange": 730,
      "Ġinc": 731,
      "Ġret": 732,
      "ĠIt": 733,
      "ĠâĢľ": 734,
      "Ġlearn": 735,
      "get": 736,
      "alth": 737,
      "ov": 738,
      "cess": 739,
      "ree": 740,
      "Ġwere": 741,
      "Ġam": 742,
      "ĠK": 743,
      "stand": 744,
      "Ġneed": 745,
      "pr": 746,
      "Ġeff": 747,
      "ject": 748,
      "Ġ#": 749,
      "ata": 750,
      "ient": 751,
      "Ġthan": 752,
      "Ġincl": 753,
      "Ġinv": 754,
      "Ġ3": 755,
      "ular": 756,
      "Ġexpl": 757,
      "ility": 758,
      "Ġdiffere": 759,
      "Ġstr": 760,
      "ath": 761,
      "ian": 762,
      "ren": 763,
      "Ġdef": 764,
      "velop": 765,
      "Ġspec": 766,
      "als": 767,
      "Ġuse": 768,
      "ll": 769,
      "Ġhis": 770,
      "irst": 771,
      "Ġrem": 772,
      "Ġval": 773,
      "Ġinst": 774,
      "ative": 775,
      "ric": 776,
      "oth": 777,
      "()": 778,
      "ween": 779,
      "ĠâĢĵ": 780,
      "##": 781,
      "Ġoff": 782,
      "chn": 783,
      "Ġprint": 784,
      "Ġprov": 785,
      "stem": 786,
      "rib": 787,
      "Ġexper": 788,
      "),": 789,
      "Ġreg": 790,
      "Ġany": 791,
      "Ġpos": 792,
      "hen": 793,
      "Ġbetween": 794,
      "Ġwork": 795,
      "Ġdisc": 796,
      "ced": 797,
      "put": 798,
      "ause": 799,
      "Ġ20": 800,
      "ential": 801,
      "Ġwhile": 802,
      "Ġevery": 803,
      "Ġinclud": 804,
      "Ġph": 805,
      "ives": 806,
      "Ġsoc": 807,
      "Ġexam": 808,
      "ues": 809,
      "In": 810,
      "ĠV": 811,
      "ool": 812,
      "ark": 813,
      "Ġadd": 814,
      "ize": 815,
      "Ġreturn": 816,
      "iet": 817,
      "Ġbl": 818,
      "Ġsa": 819,
      "ise": 820,
      "ook": 821,
      "Ġass": 822,
      "lic": 823,
      "Ġac": 824,
      "ert": 825,
      "ower": 826,
      "Ġwhere": 827,
      "Ġrep": 828,
      "ural": 829,
      "aking": 830,
      "Ġpers": 831,
      "Ġgen": 832,
      "__": 833,
      "Ġvar": 834,
      "Ġcommun": 835,
      "Ġtw": 836,
      "Ġimport": 837,
      "Ġdevelop": 838,
      "ting": 839,
      "ife": 840,
      "ices": 841,
      "ased": 842,
      "ible": 843,
      "Ġbeen": 844,
      "Ġhealth": 845,
      "Ġyear": 846,
      "Ġher": 847,
      "ational": 848,
      "old": 849,
      "Ġworld": 850,
      "its": 851,
      "Ġins": 852,
      "Ġwould": 853,
      "Ġ19": 854,
      "Ġob": 855,
      "ten": 856,
      "Ġsign": 857,
      "Ġprodu": 858,
      "Ġtechn": 859,
      "Ġke": 860,
      "uc": 861,
      "ness": 862,
      "ience": 863,
      "Ġ+": 864,
      "ram": 865,
      "(\"": 866,
      "fter": 867,
      "Ġtrans": 868,
      "Ġmany": 869,
      "Ġfl": 870,
      "pport": 871,
      "hed": 872,
      "iqu": 873,
      "Ġunderstand": 874,
      "mer": 875,
      "Ġdec": 876,
      "hes": 877,
      "Ġdifferent": 878,
      "hip": 879,
      "Ġsm": 880,
      "Ġmod": 881,
      "Ġno": 882,
      "ines": 883,
      "wn": 884,
      "\"\"": 885,
      "ward": 886,
      "ĉĉ": 887,
      "Ġsur": 888,
      "oy": 889,
      "te": 890,
      "Ġget": 891,
      "Ġcould": 892,
      "Ġinf": 893,
      "own": 894,
      "ĠAs": 895,
      "Ġpol": 896,
      "Ġsystem": 897,
      "Ġeven": 898,
      "Ġatt": 899,
      "Ġmost": 900,
      "Ġexp": 901,
      "tern": 902,
      "ft": 903,
      "Ġfun": 904,
      "'t": 905,
      "ism": 906,
      "Ġdi": 907,
      "ink": 908,
      "ble": 909,
      "rop": 910,
      "Ġfirst": 911,
      "Ġsim": 912,
      "ature": 913,
      "Ġbu": 914,
      "ily": 915,
      "ection": 916,
      "))": 917,
      "Ġcreat": 918,
      "Ġco": 919,
      "cy": 920,
      "Ġpo": 921,
      "eng": 922,
      "xt": 923,
      "vent": 924,
      "Ġ0": 925,
      "Ġchild": 926,
      "ern": 927,
      "ution": 928,
      "Ġused": 929,
      "erg": 930,
      "gan": 931,
      "Ġel": 932,
      "ont": 933,
      "Ġtwo": 934,
      "eg": 935,
      "Ġjust": 936,
      "Ġ[": 937,
      "Ġusing": 938,
      "Ġref": 939,
      "Ġduring": 940,
      "ien": 941,
      "ever": 942,
      "Ġhum": 943,
      "Ġsub": 944,
      "Ġhad": 945,
      "fore": 946,
      "ng": 947,
      "ax": 948,
      "ident": 949,
      "ists": 950,
      "print": 951,
      "Ġcall": 952,
      "Ġpres": 953,
      "ick": 954,
      "Ġhigh": 955,
      "ivid": 956,
      "Ġsk": 957,
      "erm": 958,
      "Ġpat": 959,
      "Ġmed": 960,
      "Ġset": 961,
      "iss": 962,
      "Ġeach": 963,
      "ros": 964,
      "Ġonly": 965,
      "ically": 966,
      "arm": 967,
      "ology": 968,
      "ĠWh": 969,
      "Ġtyp": 970,
      "Ġart": 971,
      "arch": 972,
      "Ġwithin": 973,
      "ĠUn": 974,
      "Ġwell": 975,
      "Ġ4": 976,
      "Ġcur": 977,
      "Ġhist": 978,
      "ruct": 979,
      "Ġent": 980,
      "Ġlead": 981,
      "Ġdata": 982,
      "Ġthose": 983,
      "other": 984,
      "Ġcomple": 985,
      "Ġform": 986,
      "Ġdist": 987,
      "ands": 988,
      "Ġ==": 989,
      "Ġsom": 990,
      "Ġ5": 991,
      "Ġcre": 992,
      "Ġread": 993,
      "Ġpract": 994,
      "ins": 995,
      "Ġprocess": 996,
      "Ġsee": 997,
      "ade": 998,
      "Ġplay": 999,
      "cept": 1000,
      "ĠĠĠĠĠĠĠĠĠĠĠĠĠĠĠ": 1001,
      "ized": 1002,
      "ering": 1003,
      "Ġcount": 1004,
      "ages": 1005,
      "imes": 1006,
      "ement": 1007,
      "ving": 1008,
      "Ġmain": 1009,
      "Ġgra": 1010,
      "Ġway": 1011,
      "Ġcult": 1012,
      "ck": 1013,
      "ode": 1014,
      "Ġfol": 1015,
      "ied": 1016,
      "Ġmight": 1017,
      "ps": 1018,
      "Ġmake": 1019,
      "Ġlife": 1020,
      "Ġshould": 1021,
      "Ġbel": 1022,
      "iron": 1023,
      "ĠFor": 1024,
      "ves": 1025,
      "Ġeffect": 1026,
      "Ġlet": 1027,
      "Ġfam": 1028,
      "ality": 1029,
      "dition": 1030,
      "ĠHow": 1031,
      "ĠWe": 1032,
      "Ġloc": 1033,
      "Ġrequ": 1034,
      "Ġfind": 1035,
      "wor": 1036,
      "Ġdet": 1037,
      "Ġmy": 1038,
      "aw": 1039,
      "led": 1040,
      "Ġperson": 1041,
      "Ġgl": 1042,
      "Ġwater": 1043,
      "Ġgrow": 1044,
      "----------------": 1045,
      "ning": 1046,
      "ividual": 1047,
      "Ġshe": 1048,
      "Ġboth": 1049,
      "chool": 1050,
      "Ġed": 1051,
      "Ġinform": 1052,
      "\")": 1053,
      "ants": 1054,
      "Ġcar": 1055,
      "uch": 1056,
      "Ġ201": 1057,
      "Ġincre": 1058,
      "cing": 1059,
      "Ġfact": 1060,
      "Ġext": 1061,
      "Ġrese": 1062,
      "Ġaround": 1063,
      "Ġpartic": 1064,
      "ody": 1065,
      "Ġown": 1066,
      "ĠThey": 1067,
      "Ġback": 1068,
      "Ġchar": 1069,
      "Ġindividual": 1070,
      "Ġresp": 1071,
      "str": 1072,
      "con": 1073,
      "Ġsec": 1074,
      "ĠBy": 1075,
      "com": 1076,
      "ĠHe": 1077,
      "Ġstart": 1078,
      "Ġsol": 1079,
      "Ġallow": 1080,
      "viron": 1081,
      "Ġmin": 1082,
      "Ġlong": 1083,
      "ĠThese": 1084,
      "ds": 1085,
      "Ġafter": 1086,
      "Ġbecause": 1087,
      "Ġgener": 1088,
      "',": 1089,
      "read": 1090,
      "Ġfound": 1091,
      "ually": 1092,
      "ional": 1093,
      "arly": 1094,
      "Ġpar": 1095,
      "Ġeng": 1096,
      "ital": 1097,
      "tle": 1098,
      "\",": 1099,
      "Ġcare": 1100,
      "Ġgu": 1101,
      "ories": 1102,
      "itions": 1103,
      "Ġthen": 1104,
      "ited": 1105,
      "ĠCom": 1106,
      "ather": 1107,
      "Th": 1108,
      "Ġfollow": 1109,
      "Ġvis": 1110,
      "over": 1111,
      "Ġaut": 1112,
      "Ġcent": 1113,
      "ĠYou": 1114,
      "..": 1115,
      "Ġdesign": 1116,
      "Ġcap": 1117,
      "Ġprog": 1118,
      "Ġche": 1119,
      "Ġmat": 1120,
      "Ġbeing": 1121,
      "def": 1122,
      "Ġpower": 1123,
      "por": 1124,
      "ining": 1125,
      "Ġchall": 1126,
      "Ġbr": 1127,
      "Ġimportant": 1128,
      "akes": 1129,
      "ights": 1130,
      "Ġnumber": 1131,
      "('": 1132,
      "Ġbefore": 1133,
      "app": 1134,
      "Ġoften": 1135,
      "Ġend": 1136,
      "oun": 1137,
      "gg": 1138,
      "ases": 1139,
      "ets": 1140,
      "uss": 1141,
      "Ġcontin": 1142,
      "ross": 1143,
      "Ġclass": 1144,
      "Ġlit": 1145,
      "Ġyears": 1146,
      "els": 1147,
      "ead": 1148,
      "Ġexample": 1149,
      "iew": 1150,
      "port": 1151,
      "Ġwrit": 1152,
      "Ġlist": 1153,
      "iving": 1154,
      "Ġconn": 1155,
      "Ġdoes": 1156,
      "Ġfood": 1157,
      "ave": 1158,
      "ci": 1159,
      "ĠAl": 1160,
      "Ġlar": 1161,
      "Ġprot": 1162,
      "Ġcor": 1163,
      "ved": 1164,
      "oring": 1165,
      "Ġpop": 1166,
      "Ġpot": 1167,
      "Ġadv": 1168,
      "Ġequ": 1169,
      "Ġmon": 1170,
      "Ġcalled": 1171,
      "Ġstudents": 1172,
      "==": 1173,
      "meric": 1174,
      "Ġlearning": 1175,
      "ider": 1176,
      "Ġdel": 1177,
      "Ġess": 1178,
      "rent": 1179,
      "Ġop": 1180,
      "ars": 1181,
      "riend": 1182,
      "Ġbo": 1183,
      "Ġtoo": 1184,
      "Ġenviron": 1185,
      "ember": 1186,
      "Ġsignific": 1187,
      "Ġserv": 1188,
      "Ġdown": 1189,
      "ew": 1190,
      "Ġactiv": 1191,
      "Ġvarious": 1192,
      "Ġtreat": 1193,
      "ribut": 1194,
      "ethod": 1195,
      "ared": 1196,
      "inal": 1197,
      "Ġdep": 1198,
      "rodu": 1199,
      "ĠEx": 1200,
      "Ġconf": 1201,
      "Ġshow": 1202,
      "ix": 1203,
      "Ġsocial": 1204,
      "ization": 1205,
      "day": 1206,
      "Ġgrou": 1207,
      "Ġprom": 1208,
      "Ġinvol": 1209,
      "cial": 1210,
      "py": 1211,
      "Ġi": 1212,
      "Ġav": 1213,
      "Ġday": 1214,
      "Ġhuman": 1215,
      "ĠAn": 1216,
      "Ġgreat": 1217,
      "Ġprovid": 1218,
      "ier": 1219,
      "Wh": 1220,
      "Ġident": 1221,
      "Ġproble": 1222,
      "Ġbuild": 1223,
      "ique": 1224,
      "line": 1225,
      "ĠAmeric": 1226,
      "ills": 1227,
      "ability": 1228,
      "Ġstudy": 1229,
      "Ġens": 1230,
      "ify": 1231,
      "ateg": 1232,
      "Ġright": 1233,
      "io": 1234,
      "Ġtake": 1235,
      "Ġmuch": 1236,
      "Ġsupport": 1237,
      "Ġschool": 1238,
      "Ġthough": 1239,
      "iness": 1240,
      "ĠAd": 1241,
      "ext": 1242,
      "Ġagain": 1243,
      "Ġreal": 1244,
      "Ġless": 1245,
      "Ġsmall": 1246,
      "Ġrange": 1247,
      "Ġcle": 1248,
      "Ġorgan": 1249,
      "ered": 1250,
      "ĠIf": 1251,
      "Ġcreate": 1252,
      "val": 1253,
      "iety": 1254,
      "ty": 1255,
      "iel": 1256,
      "Ġprof": 1257,
      "Ġlevel": 1258,
      "omen": 1259,
      "ĠPro": 1260,
      "Ġposs": 1261,
      "Ġinformation": 1262,
      "âĢĶ": 1263,
      "bers": 1264,
      "par": 1265,
      "Ġbeh": 1266,
      "Ġfeel": 1267,
      "nce": 1268,
      "rain": 1269,
      "Ġmade": 1270,
      "any": 1271,
      "Ġfunction": 1272,
      "Ġpub": 1273,
      "Ġvery": 1274,
      "ples": 1275,
      "tain": 1276,
      "air": 1277,
      "cent": 1278,
      "angu": 1279,
      "ale": 1280,
      "raph": 1281,
      "ources": 1282,
      "Ġaw": 1283,
      "20": 1284,
      "und": 1285,
      "Ġredu": 1286,
      "itive": 1287,
      "Ġchildren": 1288,
      "Ġbetter": 1289,
      "Ġris": 1290,
      "Ġgood": 1291,
      "Ġdem": 1292,
      "ven": 1293,
      "Ġwant": 1294,
      "ĠĠĠĠĠĠĠĠĠĠĠĠĠĠĠĠ": 1295,
      "Ġimpro": 1296,
      "ething": 1297,
      "Ġ6": 1298,
      "ately": 1299,
      "Ġaff": 1300,
      "ulation": 1301,
      "Ġconst": 1302,
      "ĠBut": 1303,
      "Ġmethod": 1304,
      "ling": 1305,
      "')": 1306,
      "Ġbody": 1307,
      "ively": 1308,
      "ret": 1309,
      "ĠInd": 1310,
      "Ġfriend": 1311,
      "acter": 1312,
      "esp": 1313,
      "Ġiss": 1314,
      "ination": 1315,
      "Ġnow": 1316,
      "erest": 1317,
      "ances": 1318,
      "Ġcontro": 1319,
      "less": 1320,
      "ined": 1321,
      "ray": 1322,
      "Ġide": 1323,
      "Ġbre": 1324,
      "Ġquest": 1325,
      "Ġsomething": 1326,
      "Ġappro": 1327,
      "up": 1328,
      "Ġfac": 1329,
      "Ġmust": 1330,
      "Ġtoget": 1331,
      "Ġtogether": 1332,
      "Ġothers": 1333,
      "agine": 1334,
      "Ġplan": 1335,
      "Ġenvironment": 1336,
      "iven": 1337,
      "ocus": 1338,
      "Ġresult": 1339,
      "Ġpass": 1340,
      "ries": 1341,
      "ains": 1342,
      "Ġele": 1343,
      "ock": 1344,
      "St": 1345,
      "Ġchalleng": 1346,
      "Ġx": 1347,
      "ental": 1348,
      "ired": 1349,
      "aterial": 1350,
      "Ġ10": 1351,
      "Ġanal": 1352,
      "Ġunderstanding": 1353,
      "Ġincluding": 1354,
      "Ġca": 1355,
      "to": 1356,
      "Ġmem": 1357,
      "Ġeduc": 1358,
      "orts": 1359,
      "oss": 1360,
      "Ġtest": 1361,
      "ivers": 1362,
      "Ġcour": 1363,
      "Ġamong": 1364,
      "Ġpotential": 1365,
      "Ġser": 1366,
      "Ġhapp": 1367,
      "Ġconnect": 1368,
      "wards": 1369,
      "ĠAnd": 1370,
      "Ġsaf": 1371,
      "Ġmean": 1372,
      "apter": 1373,
      "rue": 1374,
      "ĠAr": 1375,
      "Ġenc": 1376,
      "ergy": 1377,
      "Ġhand": 1378,
      "ids": 1379,
      "``": 1380,
      "num": 1381,
      "Ġsignificant": 1382,
      "ients": 1383,
      "az": 1384,
      "ccess": 1385,
      "Ġkeep": 1386,
      "ently": 1387,
      "Ġdue": 1388,
      "Ġexplore": 1389,
      "ertain": 1390,
      "Ġ**": 1391,
      "de": 1392,
      "Ġchange": 1393,
      "Ġben": 1394,
      "Ġest": 1395,
      "for": 1396,
      "Ġresearch": 1397,
      "Ġmult": 1398,
      "ince": 1399,
      "ape": 1400,
      "ted": 1401,
      "Ġexperien": 1402,
      "Ġcomplex": 1403,
      "irect": 1404,
      "ĠHowever": 1405,
      "ah": 1406,
      "Ġbecome": 1407,
      "hers": 1408,
      "Ġsym": 1409,
      "der": 1410,
      "ogn": 1411,
      "ee": 1412,
      "Ġmus": 1413,
      "ner": 1414,
      "Ġmove": 1415,
      "Ġsame": 1416,
      "19": 1417,
      "land": 1418,
      "Ġanother": 1419,
      "Ġopt": 1420,
      "Ġdid": 1421,
      "Ġtem": 1422,
      "Ġfocus": 1423,
      "ĠCon": 1424,
      "Ġrepres": 1425,
      "Ġmanag": 1426,
      "usion": 1427,
      "10": 1428,
      "Ġlangu": 1429,
      "Ġelse": 1430,
      "Ġopen": 1431,
      "ention": 1432,
      "Ġcommon": 1433,
      "Ġsit": 1434,
      "co": 1435,
      "izing": 1436,
      "ological": 1437,
      "urther": 1438,
      "Ġ200": 1439,
      "Ġmaterial": 1440,
      "Ġdon": 1441,
      ".,": 1442,
      "Ġbus": 1443,
      "Ġbelie": 1444,
      "ral": 1445,
      "Ġinterest": 1446,
      "Ġinfl": 1447,
      "be": 1448,
      "ĠSc": 1449,
      "ults": 1450,
      "Ġbased": 1451,
      "Ġwithout": 1452,
      "Ġimm": 1453,
      "Ġocc": 1454,
      "Ġhome": 1455,
      "Ġcrit": 1456,
      "ication": 1457,
      "Ġknown": 1458,
      "ĠSp": 1459,
      "Ġhistory": 1460,
      "conom": 1461,
      "Ġchang": 1462,
      "Ġvalue": 1463,
      "Ġthings": 1464,
      "Ġmaking": 1465,
      "oci": 1466,
      "Ġessential": 1467,
      "ron": 1468,
      "ĠIm": 1469,
      "Ġphys": 1470,
      "ditions": 1471,
      "cer": 1472,
      "ways": 1473,
      "Ġimpact": 1474,
      ".âĢĿ": 1475,
      "Ġproduct": 1476,
      "Ġmark": 1477,
      "verse": 1478,
      "Ġmet": 1479,
      "As": 1480,
      "ots": 1481,
      "ration": 1482,
      "reen": 1483,
      "Ġdevelopment": 1484,
      "oms": 1485,
      "Ġpur": 1486,
      "ished": 1487,
      "Ġtop": 1488,
      "])": 1489,
      "ĠTo": 1490,
      "ĠSo": 1491,
      "Ġkey": 1492,
      "Ġperform": 1493,
      "the": 1494,
      "ames": 1495,
      "Ġthink": 1496,
      "Ġfin": 1497,
      "ision": 1498,
      "Ġelect": 1499,
      "ĠRe": 1500,
      "raw": 1501,
      ".\"": 1502,
      "work": 1503,
      "Ġgover": 1504,
      "Ġlook": 1505,
      "lish": 1506,
      "uture": 1507,
      "ense": 1508,
      "Ġleg": 1509,
      "arr": 1510,
      "oura": 1511,
      "ĠWhen": 1512,
      "Ġacross": 1513,
      "Ġplace": 1514,
      "Ġ:": 1515,
      "Ġoper": 1516,
      "Ġsever": 1517,
      "Ġdise": 1518,
      "Ġdiscuss": 1519,
      "Ġalong": 1520,
      "ived": 1521,
      "ording": 1522,
      "Ġrelations": 1523,
      "Ġmeans": 1524,
      "Ġsaid": 1525,
      "Ġproper": 1526,
      "sel": 1527,
      "Ġthree": 1528,
      "ols": 1529,
      "ivity": 1530,
      "ĠSh": 1531,
      "Ġ*": 1532,
      "Ġcell": 1533,
      "ash": 1534,
      "Ġcaus": 1535,
      "pos": 1536,
      "Ġcontribut": 1537,
      "name": 1538,
      "abor": 1539,
      "This": 1540,
      "Ġ&": 1541,
      "iction": 1542,
      "Ġinclude": 1543,
      "list": 1544,
      "],": 1545,
      "Ġpresent": 1546,
      "Ġeas": 1547,
      "iod": 1548,
      "Ġbest": 1549,
      "Ġcal": 1550,
      "Ġmar": 1551,
      "ograph": 1552,
      "ats": 1553,
      "Ġstill": 1554,
      "ger": 1555,
      "Ġ\"\"\"": 1556,
      "Ġ7": 1557,
      "ike": 1558,
      "atural": 1559,
      "Ġrole": 1560,
      "Ġskills": 1561,
      "Ġwhy": 1562,
      "Ġenergy": 1563,
      "Ġbenef": 1564,
      "Ġunique": 1565,
      "ior": 1566,
      "ĠThat": 1567,
      "Ġprovide": 1568,
      "ason": 1569,
      "ĠThere": 1570,
      "Ġturn": 1571,
      "Ġconsider": 1572,
      "Ġsuccess": 1573,
      "ploy": 1574,
      "acy": 1575,
      "ield": 1576,
      "bo": 1577,
      "Ġ`": 1578,
      "ury": 1579,
      "Ġaccess": 1580,
      "iting": 1581,
      "Ġsupp": 1582,
      "Ġproject": 1583,
      "ilities": 1584,
      "Ġtry": 1585,
      "Ġworks": 1586,
      "ull": 1587,
      "ĠIs": 1588,
      "Ġconc": 1589,
      "Ġspecial": 1590,
      "Ġparticular": 1591,
      "Ġve": 1592,
      "Ġhim": 1593,
      "Ġdr": 1594,
      "Ġagainst": 1595,
      "Ġseveral": 1596,
      "Ġgovern": 1597,
      "ran": 1598,
      "Ġtal": 1599,
      "ĠWor": 1600,
      "Ġfamily": 1601,
      "atic": 1602,
      "bs": 1603,
      "Ġeconom": 1604,
      "Ġrespons": 1605,
      "ression": 1606,
      "Ġ9": 1607,
      "Ġobject": 1608,
      "Ġanim": 1609,
      "aring": 1610,
      "Ġpublic": 1611,
      "ote": 1612,
      "Ġbas": 1613,
      "Ġstep": 1614,
      "Ġ8": 1615,
      "Ġ{": 1616,
      "Ġwomen": 1617,
      "Ġspecific": 1618,
      "Ġdev": 1619,
      "ially": 1620,
      "Ġstand": 1621,
      "Ġname": 1622,
      "Ġindividuals": 1623,
      "irc": 1624,
      "Ġ18": 1625,
      "Ġstruct": 1626,
      "Ġlaw": 1627,
      "eed": 1628,
      "ym": 1629,
      "ards": 1630,
      "pportun": 1631,
      "ending": 1632,
      "Ġfuture": 1633,
      "Ġinvest": 1634,
      "agn": 1635,
      "000": 1636,
      "ĠPl": 1637,
      "Ġcommunity": 1638,
      "aj": 1639,
      "Ġmeas": 1640,
      "Ġstrateg": 1641,
      "Ġlim": 1642,
      "Ġcontrol": 1643,
      "ouse": 1644,
      "Ġglob": 1645,
      "Ġways": 1646,
      "Ġaffect": 1647,
      "Ġbusiness": 1648,
      "Ġtowards": 1649,
      "ledge": 1650,
      "Ġlocal": 1651,
      "Ġrelationship": 1652,
      "Ġnon": 1653,
      "Ġcomput": 1654,
      "tt": 1655,
      "ems": 1656,
      "Ġever": 1657,
      "Ġsl": 1658,
      "aut": 1659,
      ",\"": 1660,
      "ĠWith": 1661,
      "selves": 1662,
      "Ġopportun": 1663,
      "orn": 1664,
      "Ġbeg": 1665,
      "ilar": 1666,
      "Ġgr": 1667,
      "Ġunt": 1668,
      "here": 1669,
      "istic": 1670,
      "Ġsystems": 1671,
      "ables": 1672,
      "Ġemb": 1673,
      "Ġhere": 1674,
      "Ġcurrent": 1675,
      "ĠEng": 1676,
      "Ġexperience": 1677,
      "Ġcomb": 1678,
      "asing": 1679,
      "Ġtechnology": 1680,
      "atives": 1681,
      "outh": 1682,
      "ency": 1683,
      "Ġprotect": 1684,
      "asc": 1685,
      "aging": 1686,
      "Ġrisk": 1687,
      "Ġtoday": 1688,
      "Ġjour": 1689,
      "ton": 1690,
      "Ġgroup": 1691,
      "Ġlight": 1692,
      "Ġtradition": 1693,
      "olution": 1694,
      "Ġline": 1695,
      "Ġet": 1696,
      "ney": 1697,
      "ĠEn": 1698,
      "Ġrepresent": 1699,
      "aces": 1700,
      "etimes": 1701,
      "Ġassoci": 1702,
      "hor": 1703,
      "imate": 1704,
      "Ġlanguage": 1705,
      "Ġmaintain": 1706,
      "Ġissues": 1707,
      "''": 1708,
      "Ġcertain": 1709,
      "Ġdirect": 1710,
      "Ġstate": 1711,
      "Ġfore": 1712,
      "lo": 1713,
      "Ġhistor": 1714,
      "Ġgrowth": 1715,
      "Ġstory": 1716,
      "Ġtype": 1717,
      "Ġchallenges": 1718,
      "Ġearly": 1719,
      "Ġfew": 1720,
      "Ġcome": 1721,
      "ource": 1722,
      "Ġinput": 1723,
      "ĠWhat": 1724,
      "Ġcharacter": 1725,
      "Ġinflu": 1726,
      "Ġinit": 1727,
      "Ġstrong": 1728,
      "Ġdig": 1729,
      "ĠNew": 1730,
      "sc": 1731,
      "Ġfil": 1732,
      "of": 1733,
      "Ġfre": 1734,
      "view": 1735,
      "Ġupon": 1736,
      "Ġpain": 1737,
      "iques": 1738,
      "Ġpoint": 1739,
      "ĠĊ": 1740,
      "':": 1741,
      "ified": 1742,
      "idd": 1743,
      "Ġresources": 1744,
      "ush": 1745,
      "ium": 1746,
      "Ġmind": 1747,
      "ints": 1748,
      "Ġthroughout": 1749,
      "Ġ<": 1750,
      "ooks": 1751,
      "Ġter": 1752,
      "Ġfriends": 1753,
      "Ġemot": 1754,
      "yn": 1755,
      "Ġindust": 1756,
      "Ġant": 1757,
      "ĠOne": 1758,
      "thon": 1759,
      "ians": 1760,
      "rist": 1761,
      "Ġwords": 1762,
      "Ġsecond": 1763,
      "oid": 1764,
      "clusion": 1765,
      "idence": 1766,
      "Ġalways": 1767,
      "Ġcost": 1768,
      "Ġer": 1769,
      "thing": 1770,
      "Ġbehav": 1771,
      "Ġintern": 1772,
      "Ġcr": 1773,
      "Ġfollowing": 1774,
      "Ġrele": 1775,
      "ĠDe": 1776,
      "Ġtre": 1777,
      "Ġnatural": 1778,
      "Ġareas": 1779,
      "Now": 1780,
      "ator": 1781,
      "Ġtimes": 1782,
      "side": 1783,
      "Ġyoung": 1784,
      "urs": 1785,
      "atch": 1786,
      "What": 1787,
      "Ġlarge": 1788,
      "Ġnecess": 1789,
      "sy": 1790,
      "Ġprevent": 1791,
      "Ġarea": 1792,
      "Ġhead": 1793,
      "ption": 1794,
      "input": 1795,
      "Ġold": 1796,
      "Ġexperiences": 1797,
      "ĠOr": 1798,
      "Ġprofess": 1799,
      "Ġdesc": 1800,
      "Ġneeds": 1801,
      "Ġcourse": 1802,
      "Ġaspect": 1803,
      "Ġnext": 1804,
      "lement": 1805,
      "Ġmov": 1806,
      "by": 1807,
      "ank": 1808,
      "Ġbro": 1809,
      ",âĢĿ": 1810,
      "Ġapplic": 1811,
      "'re": 1812,
      "Ġcase": 1813,
      "Ġrun": 1814,
      "Ġuntil": 1815,
      "Ġpolit": 1816,
      "come": 1817,
      "erc": 1818,
      "Ġstat": 1819,
      "ones": 1820,
      "ĠQ": 1821,
      "Ġconditions": 1822,
      "ibility": 1823,
      "ĠCl": 1824,
      "Ġliter": 1825,
      "Ġknowledge": 1826,
      "Ġworking": 1827,
      "Ġhelps": 1828,
      "Ġsum": 1829,
      "Ġorig": 1830,
      "ĠÐ": 1831,
      "Ġage": 1832,
      "Ġsomeone": 1833,
      "Ġimprove": 1834,
      "Ġ>": 1835,
      "Ġlast": 1836,
      "Ġaddress": 1837,
      "Ġeveryone": 1838,
      "Ġill": 1839,
      "Ġscient": 1840,
      "Ġcommunities": 1841,
      "Ġpossible": 1842,
      "Ġexc": 1843,
      "ĠRes": 1844,
      "ooking": 1845,
      "col": 1846,
      "ä¸": 1847,
      "To": 1848,
      "Ġexist": 1849,
      "Ġpolic": 1850,
      "Ġvalues": 1851,
      "Ġperiod": 1852,
      "ĠAmerican": 1853,
      "Ġavail": 1854,
      "ĠComm": 1855,
      "Ġnet": 1856,
      "][": 1857,
      "Ġinteg": 1858,
      "aster": 1859,
      "Ġpast": 1860,
      "Ġpress": 1861,
      "ained": 1862,
      "arc": 1863,
      "arget": 1864,
      "ges": 1865,
      "pts": 1866,
      "sh": 1867,
      "omm": 1868,
      "Ġbreak": 1869,
      "Ġz": 1870,
      "Ġensure": 1871,
      "Ġtypes": 1872,
      "Ġstories": 1873,
      "ope": 1874,
      "Ġpersonal": 1875,
      "br": 1876,
      "cul": 1877,
      "Ġproblem": 1878,
      "Ġsimilar": 1879,
      "Ġsince": 1880,
      "Ġblood": 1881,
      "Ġpractice": 1882,
      "Ġsay": 1883,
      "Ġlow": 1884,
      "Ġair": 1885,
      "Ġprogram": 1886,
      "Ġconcern": 1887,
      "Ġsound": 1888,
      "ream": 1889,
      "icult": 1890,
      "ibr": 1891,
      "gen": 1892,
      "Ġcause": 1893,
      "gs": 1894,
      "atures": 1895,
      "ators": 1896,
      "lying": 1897,
      "Ġword": 1898,
      "aps": 1899,
      "ean": 1900,
      "nderstand": 1901,
      "chie": 1902,
      "Ġmodern": 1903,
      "Ġland": 1904,
      "iversity": 1905,
      "Ġkind": 1906,
      "hem": 1907,
      "Ġpost": 1908,
      "Ġbig": 1909,
      "ute": 1910,
      "utions": 1911,
      "Ġdeep": 1912,
      "import": 1913,
      "ysis": 1914,
      "Ġdisease": 1915,
      "Ġbi": 1916,
      "Ġleft": 1917,
      "Ġpattern": 1918,
      "Ġrespect": 1919,
      "ires": 1920,
      "not": 1921,
      "ests": 1922,
      "It": 1923,
      "min": 1924,
      "play": 1925,
      "Ġglobal": 1926,
      "Ġmill": 1927,
      "Ġrecogn": 1928,
      "Ġaddition": 1929,
      "arth": 1930,
      "ters": 1931,
      "Ġhig": 1932,
      "Ġdeterm": 1933,
      "Ġ|": 1934,
      "Ġhard": 1935,
      "Ġlo": 1936,
      "Ġorder": 1937,
      "Ġinn": 1938,
      "inary": 1939,
      "omes": 1940,
      "iple": 1941,
      "amp": 1942,
      "Ġable": 1943,
      "Ġeducation": 1944,
      "Ġmakes": 1945,
      "Ġbegin": 1946,
      "wh": 1947,
      "Ġcoll": 1948,
      "Ġlevels": 1949,
      "ilit": 1950,
      "sequ": 1951,
      "Ġsitu": 1952,
      "Ġobs": 1953,
      "Ġcountry": 1954,
      "Ġfactors": 1955,
      "Ġrest": 1956,
      "ĠAt": 1957,
      "illed": 1958,
      "ĠâĢĺ": 1959,
      "plic": 1960,
      "ĠSome": 1961,
      "elling": 1962,
      "Ġcomes": 1963,
      "Ġhaving": 1964,
      "Ġemploy": 1965,
      "Ġvalu": 1966,
      "Ġactivities": 1967,
      "Ġlittle": 1968,
      "word": 1969,
      "ument": 1970,
      "Ġtext": 1971,
      "eral": 1972,
      "Ġlives": 1973,
      "sp": 1974,
      "Section": 1975,
      "Ġtreatment": 1976,
      "inking": 1977,
      "ĠThrough": 1978,
      "ission": 1979,
      "ĠCol": 1980,
      "fully": 1981,
      "osp": 1982,
      "Ġground": 1983,
      "rand": 1984,
      "Ġfurther": 1985,
      "ina": 1986,
      "Ġonline": 1987,
      "Ġaway": 1988,
      "ype": 1989,
      "####": 1990,
      "oint": 1991,
      "Ġvir": 1992,
      "class": 1993,
      "Ġspace": 1994,
      "ised": 1995,
      "ĠCan": 1996,
      "Ġcollect": 1997,
      "Ġproblems": 1998,
      "ening": 1999,
      "ole": 2000,
      "Ġ__": 2001,
      "ik": 2002,
      "Ġassociated": 2003,
      "data": 2004,
      "aper": 2005,
      "ĠĠĠĠĠĠĠĠĠĠĠĠĠĠĠĠĠĠĠ": 2006,
      "Ġtechniques": 2007,
      "Ġcru": 2008,
      "Ġgiven": 2009,
      "Ġrequire": 2010,
      "use": 2011,
      "pro": 2012,
      "Ġencoura": 2013,
      "Ġ$": 2014,
      "Ġfost": 2015,
      "Ġallows": 2016,
      "Ġconsum": 2017,
      "Ġcultural": 2018,
      "anced": 2019,
      "Ġcho": 2020,
      "let": 2021,
      "âĢľ": 2022,
      "Ġview": 2023,
      "How": 2024,
      "Ġshare": 2025,
      "Ġclos": 2026,
      "Ġlik": 2027,
      "Ġappre": 2028,
      "Ġrece": 2029,
      "man": 2030,
      "inating": 2031,
      "Ġregard": 2032,
      "rame": 2033,
      "Ġachie": 2034,
      "Ġput": 2035,
      "Ġteam": 2036,
      "Ġmonth": 2037,
      "nces": 2038,
      "Ġinstance": 2039,
      "\"\"\"": 2040,
      "Ġestab": 2041,
      "ĠLet": 2042,
      "ours": 2043,
      "Ġnature": 2044,
      "Ġmot": 2045,
      "alse": 2046,
      "Ġheart": 2047,
      "ising": 2048,
      "ĠTe": 2049,
      "Ġgoing": 2050,
      "Ġsing": 2051,
      "ender": 2052,
      "ug": 2053,
      "Ġquestions": 2054,
      "Ðµ": 2055,
      "Ġneg": 2056,
      "Ġtraditional": 2057,
      "Ġemp": 2058,
      "Ġtools": 2059,
      "Ġphysical": 2060,
      "ences": 2061,
      "Ġexploring": 2062,
      "Ġ/": 2063,
      "Ġcust": 2064,
      "Ġdam": 2065,
      "Ġpred": 2066,
      "Ġprin": 2067,
      "ID": 2068,
      "lished": 2069,
      "ended": 2070,
      "cle": 2071,
      "ajor": 2072,
      "Ġcirc": 2073,
      "Ġvari": 2074,
      "Ġchanges": 2075,
      "joy": 2076,
      "ĠChrist": 2077,
      "Ġey": 2078,
      "append": 2079,
      "Ġyourself": 2080,
      "Ġplant": 2081,
      "Im": 2082,
      "ĠBe": 2083,
      "Ġcontinu": 2084,
      "Ġwhether": 2085,
      "Ġsugg": 2086,
      "rem": 2087,
      "ides": 2088,
      "Ġmaterials": 2089,
      "rap": 2090,
      "Ġfar": 2091,
      "Ġcreating": 2092,
      "Ġask": 2093,
      "porary": 2094,
      "Ð¾": 2095,
      "Ġsens": 2096,
      "Ġprim": 2097,
      "sw": 2098,
      "Ġavailable": 2099,
      "Ġpare": 2100,
      "An": 2101,
      "lection": 2102,
      "avor": 2103,
      "ample": 2104,
      "Ġharm": 2105,
      "etic": 2106,
      "Ġenh": 2107,
      "Ġresults": 2108,
      "Ġappreci": 2109,
      "Ch": 2110,
      "fort": 2111,
      "atory": 2112,
      "Ġbal": 2113,
      "Ġpractices": 2114,
      "Ġfamil": 2115,
      "ĠInt": 2116,
      "Ġgive": 2117,
      "Ġarr": 2118,
      "Ġenough": 2119,
      "Ġsociety": 2120,
      "af": 2121,
      "ĠEm": 2122,
      "Ġinteract": 2123,
      "Ð°": 2124,
      "icient": 2125,
      "ery": 2126,
      "aching": 2127,
      "apt": 2128,
      "Ġdifficult": 2129,
      "Ġsure": 2130,
      "Ġsw": 2131,
      "aling": 2132,
      "ecially": 2133,
      "Ġbuilding": 2134,
      "iver": 2135,
      "Ġhold": 2136,
      "Ġshort": 2137,
      "II": 2138,
      "ĠPh": 2139,
      "ek": 2140,
      "Ġmethods": 2141,
      "Ġflow": 2142,
      "roduction": 2143,
      "Ġnorm": 2144,
      "Ġteac": 2145,
      "Ġmodel": 2146,
      "Ġesp": 2147,
      "Ġcontain": 2148,
      "Ġremember": 2149,
      "oph": 2150,
      "urop": 2151,
      "aries": 2152,
      "Ġfund": 2153,
      "Ġreport": 2154,
      "Ġmanagement": 2155,
      "nderstanding": 2156,
      "umn": 2157,
      "Ġsimple": 2158,
      "oney": 2159,
      "Ġinstead": 2160,
      "Ġut": 2161,
      "Ġliving": 2162,
      "Ġbook": 2163,
      "ored": 2164,
      "Ġarg": 2165,
      "len": 2166,
      "Ġtarget": 2167,
      "Ġcountries": 2168,
      "sych": 2169,
      "Ġexpect": 2170,
      "ength": 2171,
      "though": 2172,
      "ĠZ": 2173,
      "Ġfree": 2174,
      "Ġvaluable": 2175,
      "Ġsize": 2176,
      "eter": 2177,
      "Ġhy": 2178,
      "ĠAf": 2179,
      "ĠCont": 2180,
      "ips": 2181,
      "oh": 2182,
      "rect": 2183,
      "oose": 2184,
      "Ġelements": 2185,
      "ipp": 2186,
      "aste": 2187,
      "Ġinsp": 2188,
      "ging": 2189,
      "'ll": 2190,
      "We": 2191,
      "Ġinnov": 2192,
      "Ġvol": 2193,
      "Ġcells": 2194,
      "Ġenjoy": 2195,
      "ĠAm": 2196,
      "Ġculture": 2197,
      "Ġparticip": 2198,
      "ises": 2199,
      "Ġshap": 2200,
      "new": 2201,
      "Ġsust": 2202,
      "ification": 2203,
      "ane": 2204,
      "reng": 2205,
      "Ġmen": 2206,
      "Ġpopular": 2207,
      "Ġpatients": 2208,
      "Ġthemselves": 2209,
      "Ġunit": 2210,
      "Ġcy": 2211,
      "Ġhistorical": 2212,
      "Ġpath": 2213,
      "Ġemerg": 2214,
      "Ġcritical": 2215,
      "Ġsal": 2216,
      "Ġsometimes": 2217,
      "Ġlen": 2218,
      "Ġevent": 2219,
      "icle": 2220,
      "Ġbir": 2221,
      "ety": 2222,
      "Ġcommunication": 2223,
      "```": 2224,
      "ules": 2225,
      "Ġsuper": 2226,
      "unt": 2227,
      "Ġevents": 2228,
      "Ġtemper": 2229,
      "Ġcrucial": 2230,
      "Ġespecially": 2231,
      "Ġgroups": 2232,
      "Ġmeaning": 2233,
      "###": 2234,
      "Ġrelig": 2235,
      "ring": 2236,
      "ann": 2237,
      "Ġdiverse": 2238,
      "Ġcontinue": 2239,
      "Ġgovernment": 2240,
      "lt": 2241,
      "Ġopportunities": 2242,
      "ĠSe": 2243,
      "ĠApp": 2244,
      "ï¼": 2245,
      "Ġnut": 2246,
      "Ġnear": 2247,
      "ruction": 2248,
      "Ġ+=": 2249,
      "Ġquality": 2250,
      "Ġmajor": 2251,
      "ened": 2252,
      "Ġoffer": 2253,
      "fact": 2254,
      "emporary": 2255,
      "overed": 2256,
      "ĠInst": 2257,
      "ror": 2258,
      "ĠOn": 2259,
      "Ġguid": 2260,
      "Ġur": 2261,
      "Ġappear": 2262,
      "12": 2263,
      "Ġ.": 2264,
      "Ġrather": 2265,
      "50": 2266,
      "ither": 2267,
      "ele": 2268,
      "Ġfasc": 2269,
      "face": 2270,
      "Ġseem": 2271,
      "Ġcolor": 2272,
      "ured": 2273,
      "Ġmax": 2274,
      "Ġtot": 2275,
      "light": 2276,
      "ried": 2277,
      "Ġrad": 2278,
      "ĠShe": 2279,
      "Ġmeet": 2280,
      "Ġscience": 2281,
      "ĠUnited": 2282,
      "Ġfull": 2283,
      "ĠYour": 2284,
      "init": 2285,
      "ably": 2286,
      "ĠâĢĶ": 2287,
      "Al": 2288,
      "Ġbeaut": 2289,
      "pre": 2290,
      "Ð¸": 2291,
      "Ġcancer": 2292,
      "Ġprev": 2293,
      "ĠWhile": 2294,
      "ER": 2295,
      "set": 2296,
      "Ġaim": 2297,
      "Step": 2298,
      "cient": 2299,
      "Ġthought": 2300,
      "my": 2301,
      "Ġlay": 2302,
      "ival": 2303,
      "Ġmusic": 2304,
      "lex": 2305,
      "go": 2306,
      "ott": 2307,
      "Ġconcept": 2308,
      "Ġste": 2309,
      "ptoms": 2310,
      "====": 2311,
      "Ġdays": 2312,
      "Ġauthor": 2313,
      "Ġhigher": 2314,
      "une": 2315,
      "orpor": 2316,
      "âĢĵ": 2317,
      "ches": 2318,
      "ulations": 2319,
      "Ġjourney": 2320,
      ":**": 2321,
      "Ġrecord": 2322,
      "imately": 2323,
      "Ġpositive": 2324,
      "||": 2325,
      "Ġfield": 2326,
      "ĠEurop": 2327,
      "Ġquestion": 2328,
      "Ġstudies": 2329,
      "Ġcra": 2330,
      "Ġmarket": 2331,
      "Ġlater": 2332,
      "osed": 2333,
      "aves": 2334,
      "Ġnecessary": 2335,
      "Ġsurround": 2336,
      "Ġloss": 2337,
      "Ġfour": 2338,
      "Ġquick": 2339,
      "Ġlab": 2340,
      "Ġmess": 2341,
      "ĠStud": 2342,
      "ctions": 2343,
      "Ġstreng": 2344,
      "Ġusually": 2345,
      "mon": 2346,
      "Ġwond": 2347,
      "ĠTr": 2348,
      "Ġspecies": 2349,
      "ware": 2350,
      "ĠMore": 2351,
      "avig": 2352,
      "Ġneeded": 2353,
      "arl": 2354,
      "Ġincreasing": 2355,
      "ĠAfric": 2356,
      "Ġside": 2357,
      "Ġonce": 2358,
      "Ġstrategies": 2359,
      "Ġspe": 2360,
      "Ġservices": 2361,
      "Ġdom": 2362,
      "Ġpay": 2363,
      "Ġfig": 2364,
      "Ġyet": 2365,
      "Ġtransform": 2366,
      "Ġlove": 2367,
      "Ġgame": 2368,
      "Ġstress": 2369,
      "ails": 2370,
      "Ġhealthy": 2371,
      "Ġmom": 2372,
      "ounter": 2373,
      "**:": 2374,
      "onstr": 2375,
      "Ġproduction": 2376,
      "Ġeffective": 2377,
      "head": 2378,
      "leep": 2379,
      "Ġchapter": 2380,
      "iol": 2381,
      "One": 2382,
      "Ġmedical": 2383,
      "Ġmultiple": 2384,
      "Ġproducts": 2385,
      "time": 2386,
      "Ġplants": 2387,
      "augh": 2388,
      "Ġcompon": 2389,
      "Ġanimals": 2390,
      "Ġnp": 2391,
      "erous": 2392,
      "ĠAll": 2393,
      "aches": 2394,
      "Ġimportance": 2395,
      "ged": 2396,
      "het": 2397,
      "Ġenvironmental": 2398,
      "Ġterm": 2399,
      "Ġdraw": 2400,
      "Ġexpress": 2401,
      "rams": 2402,
      "If": 2403,
      "Ġanaly": 2404,
      "aily": 2405,
      "hold": 2406,
      "ox": 2407,
      "erve": 2408,
      "Ġmental": 2409,
      "Ġimplement": 2410,
      "ios": 2411,
      "right": 2412,
      "isc": 2413,
      "Ġreflect": 2414,
      "Ġobserv": 2415,
      "Ġbrain": 2416,
      "rapy": 2417,
      "Ġclean": 2418,
      "ule": 2419,
      "Ġaccording": 2420,
      "Ġsmo": 2421,
      "from": 2422,
      "yond": 2423,
      "Ġmembers": 2424,
      "Ġface": 2425,
      "Ġpercent": 2426,
      "fer": 2427,
      "There": 2428,
      "Ġincrease": 2429,
      "Ġpolitical": 2430,
      "//": 2431,
      "Ġbecame": 2432,
      "Ġresearc": 2433,
      "pare": 2434,
      "Ġsustain": 2435,
      "Ġeffects": 2436,
      "Ġbring": 2437,
      "Ġpopulation": 2438,
      "Ġaction": 2439,
      "Ġ%": 2440,
      "Ġclear": 2441,
      "Ġcompet": 2442,
      "\":": 2443,
      "Ġlive": 2444,
      "Ġfile": 2445,
      "Ġ199": 2446,
      "ground": 2447,
      "oot": 2448,
      "ership": 2449,
      "ites": 2450,
      "Ġansw": 2451,
      "Ġflu": 2452,
      "Ġlikely": 2453,
      "Ġcases": 2454,
      "Ġexerc": 2455,
      "itle": 2456,
      "Ġbenefits": 2457,
      "Ġjob": 2458,
      "ze": 2459,
      "IN": 2460,
      "ĠAfter": 2461,
      "Ġ\\": 2462,
      "Ġreading": 2463,
      "vert": 2464,
      "nal": 2465,
      "Ġ12": 2466,
      "rel": 2467,
      "():": 2468,
      "Ġanalysis": 2469,
      "Ġoccur": 2470,
      "place": 2471,
      "ma": 2472,
      "Ġperspect": 2473,
      "Ġlower": 2474,
      "['": 2475,
      "aken": 2476,
      "ĠGod": 2477,
      "Ġdemonstr": 2478,
      "Ġfrequ": 2479,
      "Ġidentify": 2480,
      "Ġcheck": 2481,
      "Ġincreased": 2482,
      "Ġminim": 2483,
      "fect": 2484,
      "ww": 2485,
      "ologies": 2486,
      "ready": 2487,
      "ĠĠĠĠĊ": 2488,
      "nts": 2489,
      "Ġtaking": 2490,
      "istance": 2491,
      "Ġparts": 2492,
      "Ġcapt": 2493,
      "urity": 2494,
      "Ġdescrib": 2495,
      "Ġtas": 2496,
      "Ġoverall": 2497,
      "board": 2498,
      "ĠStates": 2499,
      "Ġprovides": 2500,
      "Ġapproach": 2501,
      "Ġaspects": 2502,
      "Ex": 2503,
      "Ġsuff": 2504,
      "Ġkids": 2505,
      "Ġefforts": 2506,
      "Ġcentury": 2507,
      "Ġwar": 2508,
      "Ġphot": 2509,
      "Ġattention": 2510,
      "Ġcustom": 2511,
      "Ġnumbers": 2512,
      "Ġpromot": 2513,
      "esc": 2514,
      "emic": 2515,
      "Ġnever": 2516,
      "Ġsubject": 2517,
      "Ġvers": 2518,
      "Ġstay": 2519,
      "ĠNone": 2520,
      "aving": 2521,
      "Ġwriting": 2522,
      "Ġfascinating": 2523,
      "ends": 2524,
      "Ġleading": 2525,
      "Ġrand": 2526,
      "Ġsymptoms": 2527,
      "11": 2528,
      "Ġmic": 2529,
      "rad": 2530,
      "Ġcity": 2531,
      "Ġreduce": 2532,
      "cepts": 2533,
      "iring": 2534,
      "Ġtotal": 2535,
      "aim": 2536,
      "Ġones": 2537,
      "Ġdeath": 2538,
      "ĠUnderstanding": 2539,
      "Ġstarted": 2540,
      "med": 2541,
      "ĠTrue": 2542,
      "ront": 2543,
      "itud": 2544,
      "ilt": 2545,
      "Ġcontext": 2546,
      "ĠBl": 2547,
      "Ġeth": 2548,
      "ils": 2549,
      "igen": 2550,
      "Ġinside": 2551,
      "Ġsent": 2552,
      "rast": 2553,
      "Ġalready": 2554,
      "Ġforms": 2555,
      "Ġtell": 2556,
      "Ġlands": 2557,
      "verage": 2558,
      "ey": 2559,
      "Ġpatterns": 2560,
      "ropri": 2561,
      "ĠWorld": 2562,
      "Ġreally": 2563,
      "ĠMan": 2564,
      "--------------------------------": 2565,
      "rid": 2566,
      "Ġsubst": 2567,
      "izations": 2568,
      "Ġcollabor": 2569,
      "Ġpaper": 2570,
      "agement": 2571,
      "Ġrights": 2572,
      "Ġchem": 2573,
      "Ġmedia": 2574,
      "Ġindic": 2575,
      "Ġamount": 2576,
      "']": 2577,
      "For": 2578,
      "Ġdaily": 2579,
      "duct": 2580,
      "Ġavoid": 2581,
      "care": 2582,
      "Ġability": 2583,
      "Ġevidence": 2584,
      "Ġscen": 2585,
      "...": 2586,
      "ĠUniversity": 2587,
      "chan": 2588,
      "Ġboard": 2589,
      "ancial": 2590,
      "Ġentire": 2591,
      "ystem": 2592,
      "Ġabs": 2593,
      "order": 2594,
      "****": 2595,
      "Ġprec": 2596,
      "Ġcut": 2597,
      "ancing": 2598,
      "ming": 2599,
      "Ġposition": 2600,
      "Ġla": 2601,
      "Ġbehind": 2602,
      "orth": 2603,
      "Ġdigital": 2604,
      "Ġsingle": 2605,
      "epend": 2606,
      "reg": 2607,
      "Ġintrodu": 2608,
      "ciples": 2609,
      "oday": 2610,
      "uments": 2611,
      "Ġcontemporary": 2612,
      "Ġremain": 2613,
      "Ġrelationships": 2614,
      "://": 2615,
      "ĠSim": 2616,
      "Ġaccur": 2617,
      "ĠX": 2618,
      "irit": 2619,
      "Ġsymb": 2620,
      "based": 2621,
      "ĠMed": 2622,
      "cies": 2623,
      "amed": 2624,
      "oes": 2625,
      "Ġdru": 2626,
      "AR": 2627,
      "Ġaltern": 2628,
      "Ġeconomic": 2629,
      "more": 2630,
      "hens": 2631,
      "Ġabove": 2632,
      "Ġdoing": 2633,
      "Ġreason": 2634,
      "Ġengine": 2635,
      "18": 2636,
      "acters": 2637,
      "Ġbehavior": 2638,
      "Con": 2639,
      "iation": 2640,
      "Ġincorpor": 2641,
      "ok": 2642,
      "yle": 2643,
      "Ġbat": 2644,
      "Ġmoney": 2645,
      "Ġshape": 2646,
      "Ġregular": 2647,
      "rim": 2648,
      "ĠCO": 2649,
      "Ġcreated": 2650,
      "Ġfall": 2651,
      "Ġbeyond": 2652,
      "Ġcontribute": 2653,
      "Ġsuggest": 2654,
      "But": 2655,
      "iles": 2656,
      "Ġrate": 2657,
      "ĠMay": 2658,
      "Ġ15": 2659,
      "Ġwid": 2660,
      "Ġaud": 2661,
      "Ġelif": 2662,
      "Ġparticularly": 2663,
      "utes": 2664,
      "When": 2665,
      "ĠWar": 2666,
      "Ġconsist": 2667,
      "alf": 2668,
      "ump": 2669,
      "So": 2670,
      "Ġweight": 2671,
      "Ġvisual": 2672,
      "Ġseen": 2673,
      "Ġextra": 2674,
      "Ġdoct": 2675,
      "Ġaware": 2676,
      "Ġassess": 2677,
      "eper": 2678,
      "ores": 2679,
      "ÑĤ": 2680,
      "Ġsafety": 2681,
      "Ġred": 2682,
      "ĠAct": 2683,
      "Ġclimate": 2684,
      "Ġresearchers": 2685,
      "iddle": 2686,
      "Ġwind": 2687,
      "onse": 2688,
      "Ġnarr": 2689,
      "Ġ\",": 2690,
      "Ġmach": 2691,
      "Ġge": 2692,
      "Ġtraining": 2693,
      "oved": 2694,
      "eration": 2695,
      "Ġuser": 2696,
      "Ġdoc": 2697,
      "elcome": 2698,
      "Ġpsych": 2699,
      "Ġnavig": 2700,
      "mit": 2701,
      "Ġinsights": 2702,
      "ynam": 2703,
      "add": 2704,
      "ĠCent": 2705,
      "emember": 2706,
      "Ġideas": 2707,
      "Ġstudent": 2708,
      "alu": 2709,
      "Ġeverything": 2710,
      "Ġgreater": 2711,
      "Ġselect": 2712,
      "ĠJust": 2713,
      "Ġhowever": 2714,
      "Ġactually": 2715,
      "Ġdesigned": 2716,
      "most": 2717,
      "Ġidea": 2718,
      "equ": 2719,
      "Ġdone": 2720,
      "Ġtravel": 2721,
      "Ġsafe": 2722,
      "Imagine": 2723,
      "Ġcool": 2724,
      "Ġdive": 2725,
      "Ġstru": 2726,
      "Ġsun": 2727,
      "Ġindustry": 2728,
      "isions": 2729,
      "__(": 2730,
      "Ġsays": 2731,
      "You": 2732,
      "Ġmatter": 2733,
      "Ġthinking": 2734,
      "Ġsoft": 2735,
      "ivate": 2736,
      "Ġshared": 2737,
      "ĠUS": 2738,
      "Ġdecision": 2739,
      "dom": 2740,
      "ply": 2741,
      "Ġarch": 2742,
      "Ġcommit": 2743,
      "Ġtakes": 2744,
      "Ġpowerful": 2745,
      "Ġoptim": 2746,
      "bon": 2747,
      "Ġcode": 2748,
      "Ġmedic": 2749,
      "Ġrandom": 2750,
      "Ġinvolves": 2751,
      "Ġvide": 2752,
      "ls": 2753,
      "Ġexact": 2754,
      "Ġwhole": 2755,
      "Ġbroad": 2756,
      "oman": 2757,
      "earch": 2758,
      "ĠHealth": 2759,
      "ustr": 2760,
      "Ġconnections": 2761,
      "Ġlif": 2762,
      "Ġsex": 2763,
      "Ġsteps": 2764,
      "Ġcame": 2765,
      "Ġhouse": 2766,
      "ird": 2767,
      "Ġspread": 2768,
      "Ġpoints": 2769,
      "Ġperformance": 2770,
      "vant": 2771,
      "icien": 2772,
      "Ġcompan": 2773,
      "ĠChapter": 2774,
      "just": 2775,
      "Ġsat": 2776,
      "inally": 2777,
      "Ġfavor": 2778,
      "istics": 2779,
      "ditionally": 2780,
      "ĠEnglish": 2781,
      "Ġprocesses": 2782,
      "Ġdoesn": 2783,
      "hing": 2784,
      "ĠHist": 2785,
      "Let": 2786,
      "enge": 2787,
      "elt": 2788,
      "Ġlog": 2789,
      "Ġgain": 2790,
      "Ġdiscover": 2791,
      "hood": 2792,
      "ĠCons": 2793,
      "Ġheat": 2794,
      "Ġrequired": 2795,
      "Ġmillion": 2796,
      "ĠSu": 2797,
      "Ġisn": 2798,
      "ĠWell": 2799,
      "like": 2800,
      "ĠBrit": 2801,
      "Ġprinciples": 2802,
      "Ġhumans": 2803,
      "Ġleast": 2804,
      "iful": 2805,
      "Ġwal": 2806,
      "Ġdeeper": 2807,
      "Ġconvers": 2808,
      "Ã©": 2809,
      "Ġhab": 2810,
      "ĠAmerica": 2811,
      "Ġpict": 2812,
      "Ġconcepts": 2813,
      "ivil": 2814,
      "Ġ[]": 2815,
      "Ġnational": 2816,
      "Ġ100": 2817,
      "Ġoffers": 2818,
      "works": 2819,
      "Ġjo": 2820,
      "ounts": 2821,
      "Ġing": 2822,
      "Ġtrue": 2823,
      "Ġprote": 2824,
      "Ġlot": 2825,
      "Ġwa": 2826,
      "erence": 2827,
      "Ġbooks": 2828,
      "Ġpressure": 2829,
      "Ġmass": 2830,
      "rig": 2831,
      "ifically": 2832,
      "Ġaccount": 2833,
      "Ġbar": 2834,
      "Ġcharacters": 2835,
      "ohn": 2836,
      "Ġeither": 2837,
      "ĠAb": 2838,
      "Ġfeatures": 2839,
      "Ġflo": 2840,
      "Ġactivity": 2841,
      "Ġregarding": 2842,
      "ellow": 2843,
      "ourse": 2844,
      "Ġfish": 2845,
      "Ġproviding": 2846,
      "know": 2847,
      "Ġprogress": 2848,
      "ided": 2849,
      "Ġdeg": 2850,
      "Ġevalu": 2851,
      "idered": 2852,
      "ison": 2853,
      "Ġfru": 2854,
      "Ġinvolved": 2855,
      "Ġcele": 2856,
      "Ġrev": 2857,
      "Ġstop": 2858,
      "Ġ30": 2859,
      "Ġimage": 2860,
      "ĉĉĉĉ": 2861,
      "Ġmor": 2862,
      "ccording": 2863,
      "Ġfeed": 2864,
      "ae": 2865,
      "Ġfire": 2866,
      "iment": 2867,
      "phas": 2868,
      "Ġbelief": 2869,
      "Ġdat": 2870,
      "Ġcompany": 2871,
      "Ġfinancial": 2872,
      "Ġrecomm": 2873,
      "15": 2874,
      "Ġcannot": 2875,
      "Ġindex": 2876,
      "Ġdiet": 2877,
      "ĠMar": 2878,
      "osis": 2879,
      "Ġbegan": 2880,
      "astic": 2881,
      "iar": 2882,
      "Ġwild": 2883,
      "bre": 2884,
      "ster": 2885,
      "Ġeasy": 2886,
      "Ġcalcul": 2887,
      "Ġport": 2888,
      "ĠFalse": 2889,
      "Ġachieve": 2890,
      "uck": 2891,
      "amm": 2892,
      "Ġdeb": 2893,
      "Ġoil": 2894,
      "ĠPre": 2895,
      "Ġappropri": 2896,
      "Ġsociet": 2897,
      "Ġtalk": 2898,
      "Ġpack": 2899,
      "Ġsurface": 2900,
      "Ġwin": 2901,
      "ĠTra": 2902,
      "Ġancient": 2903,
      "ĠDr": 2904,
      "Ġcomputer": 2905,
      "AT": 2906,
      "Ġimagine": 2907,
      "ĠGen": 2908,
      "Ġoutside": 2909,
      "ography": 2910,
      "Ġsqu": 2911,
      "icial": 2912,
      "index": 2913,
      "Ġslow": 2914,
      "rix": 2915,
      "Ġitself": 2916,
      "chol": 2917,
      "Ġ16": 2918,
      "Ġdeveloping": 2919,
      "ĠUs": 2920,
      "pid": 2921,
      "Ġintegr": 2922,
      "acc": 2923,
      "Ġmechan": 2924,
      "ban": 2925,
      "Ġconsidered": 2926,
      "ribution": 2927,
      "ĠLe": 2928,
      "Ġbalance": 2929,
      "By": 2930,
      "Ġterms": 2931,
      "30": 2932,
      "odies": 2933,
      "Ġbecomes": 2934,
      "vere": 2935,
      "Ġrelated": 2936,
      "iece": 2937,
      "Ġrow": 2938,
      "Ġtrust": 2939,
      "atform": 2940,
      "Ġmag": 2941,
      "Ġrich": 2942,
      "Ġtaken": 2943,
      "Ġsepar": 2944,
      "ronic": 2945,
      "='": 2946,
      "ython": 2947,
      "osing": 2948,
      "Ġcontact": 2949,
      "Ġdeveloped": 2950,
      "Ġheav": 2951,
      "Ġsource": 2952,
      "rior": 2953,
      "Ġadapt": 2954,
      "Ġthreat": 2955,
      "Ġrob": 2956,
      "che": 2957,
      "Ġstructure": 2958,
      "Ġparents": 2959,
      "Ð½": 2960,
      "itable": 2961,
      "Ġcop": 2962,
      "ĠGu": 2963,
      "Ġremains": 2964,
      "uff": 2965,
      "Ġdest": 2966,
      "Ġgreen": 2967,
      "ĠAss": 2968,
      "ĠPe": 2969,
      "hib": 2970,
      "erson": 2971,
      "Ġstrugg": 2972,
      "amin": 2973,
      "acks": 2974,
      "Ġgeneral": 2975,
      "ales": 2976,
      "Ġopp": 2977,
      "ĠNational": 2978,
      "urrent": 2979,
      "ĠPol": 2980,
      "ously": 2981,
      "ched": 2982,
      "test": 2983,
      "Ġconduct": 2984,
      "Ġdynam": 2985,
      "ung": 2986,
      "igenous": 2987,
      "way": 2988,
      "Ġ17": 2989,
      "iciency": 2990,
      "ift": 2991,
      "amb": 2992,
      "ĠPr": 2993,
      "type": 2994,
      "Ġsense": 2995,
      "enn": 2996,
      "onom": 2997,
      "Ġcondition": 2998,
      "Ġrules": 2999,
      "ĠSoc": 3000,
      "abet": 3001,
      "ricult": 3002,
      "Ġwarm": 3003,
      "Ġresponse": 3004,
      "ties": 3005,
      "Ġrequires": 3006,
      "Ġtemperature": 3007,
      "Ġ,": 3008,
      "Ġsources": 3009,
      "Ġsleep": 3010,
      "Ġitems": 3011,
      "den": 3012,
      "Ġdiv": 3013,
      "Ġec": 3014,
      "ighb": 3015,
      "ĠMany": 3016,
      "Ġproduce": 3017,
      "Ġtri": 3018,
      "Ġhours": 3019,
      "Ġreve": 3020,
      "Ġdiagn": 3021,
      "Ġskin": 3022,
      "ĠOver": 3023,
      "Ġcomponents": 3024,
      "resh": 3025,
      "Ġlearned": 3026,
      "Ġidentity": 3027,
      "text": 3028,
      "Ġsignificantly": 3029,
      "Ġfail": 3030,
      "arily": 3031,
      "ĠNo": 3032,
      "Ġprevious": 3033,
      "ades": 3034,
      "Ġfat": 3035,
      "Ġbelow": 3036,
      "ese": 3037,
      "Ġdamage": 3038,
      "Ġled": 3039,
      "Ġcompared": 3040,
      "Ġinterp": 3041,
      "Ġsurrounding": 3042,
      "Ġinj": 3043,
      "Ġbasic": 3044,
      "Ñģ": 3045,
      "Ġmonit": 3046,
      "cles": 3047,
      "Ġinstit": 3048,
      "Ġarray": 3049,
      "Ġnovel": 3050,
      "\".": 3051,
      "inct": 3052,
      "Ġmeasure": 3053,
      "ai": 3054,
      "edi": 3055,
      "hy": 3056,
      "Ġcompre": 3057,
      "ES": 3058,
      "key": 3059,
      "Ġgrowing": 3060,
      "Ġviol": 3061,
      "çļ": 3062,
      "Ġallowing": 3063,
      "file": 3064,
      "Ġlength": 3065,
      "Ġsurv": 3066,
      "Ġvisit": 3067,
      "Ġcit": 3068,
      "Ġfarm": 3069,
      "Ġrecent": 3070,
      "Ġbreat": 3071,
      "Ġstates": 3072,
      "ĠNow": 3073,
      "ĠAdditionally": 3074,
      "Ġframe": 3075,
      "efore": 3076,
      "Ġwrite": 3077,
      "ĠImagine": 3078,
      "Ġfem": 3079,
      "ume": 3080,
      "ĠEarth": 3081,
      "ĠRec": 3082,
      "Ġparam": 3083,
      "Ġschools": 3084,
      "Ġsuccessful": 3085,
      "çļĦ": 3086,
      "tings": 3087,
      "uel": 3088,
      "Ġreact": 3089,
      "ĠPer": 3090,
      "ĠIndia": 3091,
      "oon": 3092,
      "Ġund": 3093,
      "Ġsimply": 3094,
      "oming": 3095,
      "Ġemphas": 3096,
      "Ġresponsible": 3097,
      "oration": 3098,
      "rag": 3099,
      "ĠFurther": 3100,
      "Ġresil": 3101,
      "pose": 3102,
      "Ġinfluence": 3103,
      "Ġlandsc": 3104,
      "Ġfive": 3105,
      "Ġchallenge": 3106,
      "Ġgender": 3107,
      "ĠFrom": 3108,
      "Ġbeautiful": 3109,
      "gest": 3110,
      "Ġquickly": 3111,
      "Ġspirit": 3112,
      "athy": 3113,
      "14": 3114,
      "Ġlooking": 3115,
      "Ġnamed": 3116,
      "Ġtook": 3117,
      "Ġadvent": 3118,
      "mat": 3119,
      "ĠCal": 3120,
      "aced": 3121,
      "format": 3122,
      "Ġperfect": 3123,
      "ÑĢ": 3124,
      "eds": 3125,
      "Ġprovided": 3126,
      "Ġlink": 3127,
      "Ġgas": 3128,
      "Ġprograms": 3129,
      "=\"": 3130,
      "izes": 3131,
      "ĠSouth": 3132,
      "ervation": 3133,
      "count": 3134,
      "AS": 3135,
      "Ġincludes": 3136,
      "Ġgetting": 3137,
      "Ġplatform": 3138,
      "Ġshows": 3139,
      "bl": 3140,
      "plit": 3141,
      "Ġroot": 3142,
      "Ġblack": 3143,
      "Ġequip": 3144,
      "python": 3145,
      "fl": 3146,
      "Ġfamilies": 3147,
      "ĠToday": 3148,
      "illing": 3149,
      "Ġregion": 3150,
      "Ġhands": 3151,
      "Ġcat": 3152,
      "Ġchoose": 3153,
      "Ġbelieve": 3154,
      "Ġpredict": 3155,
      "Ġclose": 3156,
      "ension": 3157,
      "ript": 3158,
      "Ġdevices": 3159,
      "Ġbound": 3160,
      "ĠĠĠĠĠ": 3161,
      "Ġconcerns": 3162,
      "Ġwhite": 3163,
      "versity": 3164,
      "odes": 3165,
      "Ġlines": 3166,
      "Ġweek": 3167,
      "ying": 3168,
      "âĢ¦": 3169,
      "Ġoutput": 3170,
      "aged": 3171,
      "Ġcontent": 3172,
      "Ġrefers": 3173,
      "Ġsharing": 3174,
      "Ġprob": 3175,
      "Ġann": 3176,
      "apan": 3177,
      "Ġpatient": 3178,
      "Ġinvestig": 3179,
      "minist": 3180,
      "su": 3181,
      "room": 3182,
      "Ġservice": 3183,
      "Ġtable": 3184,
      "200": 3185,
      "umb": 3186,
      "rite": 3187,
      "Ġcorrect": 3188,
      "hel": 3189,
      "value": 3190,
      "Ġmovement": 3191,
      "isms": 3192,
      "Ġveget": 3193,
      "Ġapplications": 3194,
      "Ġensuring": 3195,
      "Ġcauses": 3196,
      "Ġcompanies": 3197,
      "Ġfilled": 3198,
      "Ġsoil": 3199,
      "ufact": 3200,
      "where": 3201,
      "amples": 3202,
      "Ġestablish": 3203,
      "Ġvital": 3204,
      "Ġsolutions": 3205,
      "Ġliterature": 3206,
      "17": 3207,
      "Ġsn": 3208,
      "ley": 3209,
      "Ġthr": 3210,
      "ulate": 3211,
      "Ġclaim": 3212,
      "ĠJohn": 3213,
      "Ġgraph": 3214,
      "Ġoriginal": 3215,
      "EN": 3216,
      "uries": 3217,
      "Ġengaging": 3218,
      "left": 3219,
      "]:": 3220,
      "Ġserve": 3221,
      "Ġnetwork": 3222,
      "Ġlessons": 3223,
      "ops": 3224,
      "16": 3225,
      "itation": 3226,
      "Ġmis": 3227,
      "ĠRep": 3228,
      "Ġcelebr": 3229,
      "Ġappl": 3230,
      "Ġtransport": 3231,
      "ĠHis": 3232,
      "Ġfa": 3233,
      "Ġfit": 3234,
      "Ġmix": 3235,
      "Ġpromote": 3236,
      "Ġscientists": 3237,
      "Ġprimary": 3238,
      "Ġcaused": 3239,
      "node": 3240,
      "Ġsect": 3241,
      "Ġrefer": 3242,
      "Ġstructures": 3243,
      "'ve": 3244,
      "iter": 3245,
      "Ġconclusion": 3246,
      "Ġimag": 3247,
      "Ġhealthcare": 3248,
      "Ġemotional": 3249,
      "Ġcard": 3250,
      "Ġdifferences": 3251,
      "Ġaccept": 3252,
      "Ġorganizations": 3253,
      "Ġhon": 3254,
      "Ġdifference": 3255,
      "Ġreview": 3256,
      "Ġexactly": 3257,
      "Ġactions": 3258,
      "gar": 3259,
      "Ġthing": 3260,
      "Ġcolumn": 3261,
      "cks": 3262,
      "Ġcross": 3263,
      "Ġap": 3264,
      "Ġ{}": 3265,
      "Ġmonths": 3266,
      "Ġindepend": 3267,
      "Ġspeak": 3268,
      "comes": 3269,
      "Ġplanning": 3270,
      "Ġlibr": 3271,
      "Ġult": 3272,
      "Ġinternational": 3273,
      "Ġearl": 3274,
      "ĠEach": 3275,
      "ĠReg": 3276,
      "Ġunc": 3277,
      "Ġcultures": 3278,
      "Ġwritten": 3279,
      "back": 3280,
      "size": 3281,
      "Ġcommunic": 3282,
      "Ġreaders": 3283,
      "Ġfoods": 3284,
      "Ġchallenging": 3285,
      "omet": 3286,
      "Ġheard": 3287,
      "ĉĉĉ": 3288,
      "Ġobjects": 3289,
      "Ġnode": 3290,
      "Ġ50": 3291,
      "Ġeffectively": 3292,
      "urt": 3293,
      "Ġquite": 3294,
      "Ġplaying": 3295,
      "())": 3296,
      "].": 3297,
      "ancy": 3298,
      "ĠCar": 3299,
      "Ġtrying": 3300,
      "Ġeyes": 3301,
      "Ġdog": 3302,
      "Ġhalf": 3303,
      "urch": 3304,
      "date": 3305,
      "ĠFl": 3306,
      "Ġappropriate": 3307,
      "ilos": 3308,
      "wide": 3309,
      "Ġtown": 3310,
      "ĠIntern": 3311,
      "Ġnumerous": 3312,
      "Ġtechnologies": 3313,
      "ĠUnit": 3314,
      "do": 3315,
      "ensive": 3316,
      "ĠArt": 3317,
      "Ġanimal": 3318,
      "Ġnormal": 3319,
      "Ġmicro": 3320,
      "Ġchemical": 3321,
      "Ġmiss": 3322,
      "hern": 3323,
      "Ġdesp": 3324,
      "Ġextrem": 3325,
      "ork": 3326,
      "Ġinvolve": 3327,
      "ached": 3328,
      "Ġlegal": 3329,
      "Ġanswer": 3330,
      "IV": 3331,
      "ON": 3332,
      "Ġtim": 3333,
      "icles": 3334,
      "Ġsequ": 3335,
      "inese": 3336,
      "Ġlonger": 3337,
      "ony": 3338,
      "ĠOur": 3339,
      "ads": 3340,
      "ĠNot": 3341,
      "ĠGe": 3342,
      "yl": 3343,
      "Ġtool": 3344,
      "Ġsearch": 3345,
      "Ġpolicy": 3346,
      "Ġded": 3347,
      "ected": 3348,
      "ĠHigh": 3349,
      "Ġiniti": 3350,
      "while": 3351,
      "term": 3352,
      "ĠJapan": 3353,
      "Ġetc": 3354,
      "Ġdelve": 3355,
      "Ġuses": 3356,
      "Ġprofession": 3357,
      "Ġreach": 3358,
      "Ġissue": 3359,
      "Ġingred": 3360,
      "ero": 3361,
      "Ġreligious": 3362,
      "rought": 3363,
      "iec": 3364,
      "son": 3365,
      "org": 3366,
      "Ġvo": 3367,
      "Ġprojects": 3368,
      "Ġful": 3369,
      "Ġadditional": 3370,
      "inate": 3371,
      "roll": 3372,
      "elines": 3373,
      "Ġneighb": 3374,
      "Ġfeelings": 3375,
      "overy": 3376,
      "Ġfair": 3377,
      "Ġrout": 3378,
      "Ġ14": 3379,
      "Ġsituation": 3380,
      "Ġtherapy": 3381,
      "ĠGerm": 3382,
      "ĠOnce": 3383,
      "Ġgoals": 3384,
      "Ġspeed": 3385,
      "Ġtax": 3386,
      "gor": 3387,
      "rown": 3388,
      "Ġnegative": 3389,
      "mar": 3390,
      "erate": 3391,
      "Ġbra": 3392,
      "ĠSec": 3393,
      "Ġexcept": 3394,
      "Ġarticle": 3395,
      "Ġlarger": 3396,
      "pper": 3397,
      "Ġgames": 3398,
      "Ġspecifically": 3399,
      "Ġembra": 3400,
      "Ġbab": 3401,
      "ĠTheir": 3402,
      "Ġplays": 3403,
      "Ġsecurity": 3404,
      "Ġstrength": 3405,
      "ĠFurthermore": 3406,
      "!=": 3407,
      "Ġver": 3408,
      "Ġhtt": 3409,
      "Ġcomplete": 3410,
      "Ġthoughts": 3411,
      "rs": 3412,
      "Ġusers": 3413,
      "ĠRemember": 3414,
      "Ġoptions": 3415,
      "Ġfostering": 3416,
      "aff": 3417,
      "Ġtree": 3418,
      "IS": 3419,
      "empt": 3420,
      "life": 3421,
      "lands": 3422,
      "Ġinitial": 3423,
      "Ġscientific": 3424,
      "Ġefficient": 3425,
      "Ġmodels": 3426,
      "'''": 3427,
      "vey": 3428,
      "Ġbase": 3429,
      "Ġhol": 3430,
      "ĠAg": 3431,
      "Ġclin": 3432,
      "ields": 3433,
      "ublic": 3434,
      "Ġseries": 3435,
      "Ġfavorite": 3436,
      "Ġteachers": 3437,
      "Ġutil": 3438,
      "Ġexamples": 3439,
      "orders": 3440,
      "Ġseason": 3441,
      "Ġpolicies": 3442,
      "ching": 3443,
      "Ġdecisions": 3444,
      "Ġbuilt": 3445,
      "ements": 3446,
      "ĠMy": 3447,
      "Ġsolution": 3448,
      "âł": 3449,
      "Ġlate": 3450,
      "Ġforest": 3451,
      "Int": 3452,
      "itude": 3453,
      "aly": 3454,
      "Ġemotions": 3455,
      "iny": 3456,
      "Ġwaste": 3457,
      "Ġhor": 3458,
      "Ġfunctions": 3459,
      "espite": 3460,
      "Ġequipment": 3461,
      "Ġconsequ": 3462,
      "Ġwood": 3463,
      "Ġmath": 3464,
      "Ġnarratives": 3465,
      "Ð¾Ð": 3466,
      "Ġperspectives": 3467,
      "att": 3468,
      "Ġcomfort": 3469,
      "Ġoutcomes": 3470,
      "lease": 3471,
      "ĠOf": 3472,
      "([": 3473,
      "ellig": 3474,
      "Ġcolle": 3475,
      "ĠChinese": 3476,
      "ĠResearch": 3477,
      "Have": 3478,
      "åı": 3479,
      "Ġ13": 3480,
      "erences": 3481,
      "Ġmaintaining": 3482,
      "ĠPres": 3483,
      "Ġteeth": 3484,
      "Ġeasily": 3485,
      "ĠChristian": 3486,
      "Ġmanufact": 3487,
      "Ġagre": 3488,
      "Ġprofessional": 3489,
      "Ġforward": 3490,
      "vention": 3491,
      "At": 3492,
      "atively": 3493,
      "Ġagricult": 3494,
      "Ġrelevant": 3495,
      "gorith": 3496,
      "haps": 3497,
      "iam": 3498,
      "Ġfight": 3499,
      "Ġstage": 3500,
      "Ġfeature": 3501,
      "Ġcreative": 3502,
      "Ġtypically": 3503,
      "?\"": 3504,
      "Ġroom": 3505,
      "Ġtopics": 3506,
      "Ġelectric": 3507,
      "25": 3508,
      "Ġox": 3509,
      "ounds": 3510,
      "Ġ25": 3511,
      "Ġadop": 3512,
      "Ġstar": 3513,
      "Ġdistinct": 3514,
      "Ġvia": 3515,
      "Ġexpos": 3516,
      "ĠQu": 3517,
      "gn": 3518,
      "pe": 3519,
      "Ġsite": 3520,
      "clud": 3521,
      "En": 3522,
      "number": 3523,
      "OR": 3524,
      "Ġcore": 3525,
      "Ġdecided": 3526,
      "ieces": 3527,
      "hors": 3528,
      "array": 3529,
      "Ġforce": 3530,
      "Ġwebs": 3531,
      "Ġinstall": 3532,
      "Ġbusinesses": 3533,
      "Ġgard": 3534,
      "Ġplaces": 3535,
      "Ġmoment": 3536,
      "Ġfear": 3537,
      "ows": 3538,
      "ief": 3539,
      "eal": 3540,
      "Ġelement": 3541,
      "Ġenhance": 3542,
      "Ġconcent": 3543,
      "ada": 3544,
      "ĠMod": 3545,
      "artment": 3546,
      "Ġadded": 3547,
      "Ġconstruct": 3548,
      "estern": 3549,
      "Ġmention": 3550,
      "otal": 3551,
      "Ġsetting": 3552,
      "Ġrates": 3553,
      "Ġengage": 3554,
      "sum": 3555,
      "Ġactive": 3556,
      "Ġago": 3557,
      "Ġappreciate": 3558,
      "uge": 3559,
      "ĠLear": 3560,
      "Ġcitiz": 3561,
      "Ġdespite": 3562,
      "Ġanx": 3563,
      "ĠMoreover": 3564,
      "Ġjud": 3565,
      "Ġvideo": 3566,
      "._": 3567,
      "Ġvirt": 3568,
      "pass": 3569,
      "rol": 3570,
      "Ġnight": 3571,
      "Ġalmost": 3572,
      "Ġasked": 3573,
      "Ġconnection": 3574,
      "Ġbehavi": 3575,
      "Ġcontinued": 3576,
      "ha": 3577,
      "Ġfresh": 3578,
      "Ġteach": 3579,
      "plications": 3580,
      "olic": 3581,
      "Ġbad": 3582,
      "13": 3583,
      "Ġdial": 3584,
      "Ġstring": 3585,
      "Ġbackground": 3586,
      "abilities": 3587,
      "Ġgoal": 3588,
      "Ġaverage": 3589,
      "Ġdiscovered": 3590,
      "Ġstandard": 3591,
      "ilarly": 3592,
      "Ġexpand": 3593,
      "Ġgot": 3594,
      "Ġsoon": 3595,
      "ĠKe": 3596,
      "Ġmaxim": 3597,
      "going": 3598,
      "Ġsection": 3599,
      "Ġsituations": 3600,
      "Ġhelping": 3601,
      "azing": 3602,
      "Ġhyd": 3603,
      "Ġpromoting": 3604,
      "abetes": 3605,
      "itect": 3606,
      "ĠAust": 3607,
      "Ġlimited": 3608,
      "AN": 3609,
      "wise": 3610,
      "rew": 3611,
      "---": 3612,
      "next": 3613,
      "Ġ2020": 3614,
      "Ġexisting": 3615,
      "Ġsil": 3616,
      "encies": 3617,
      "Ġprotection": 3618,
      "ĠCo": 3619,
      "Ġsignificance": 3620,
      "anks": 3621,
      "ĠDo": 3622,
      "Ġcapital": 3623,
      "Ġexercise": 3624,
      "Ġord": 3625,
      "Ġinterpret": 3626,
      "dict": 3627,
      "Ġpan": 3628,
      "Ġpiece": 3629,
      "Ġevol": 3630,
      "Ġep": 3631,
      "Ġhope": 3632,
      "asons": 3633,
      "ĠPar": 3634,
      "ĠFirst": 3635,
      "ners": 3636,
      "Ġfast": 3637,
      "Ġmeasures": 3638,
      "Ġcivil": 3639,
      "Ġmagn": 3640,
      "Ġautom": 3641,
      "alls": 3642,
      "Ġcarbon": 3643,
      "ĠHer": 3644,
      "ĠChina": 3645,
      "Ġsmaller": 3646,
      "Ġapproaches": 3647,
      "Ġcosts": 3648,
      "æķ": 3649,
      "ceed": 3650,
      "irm": 3651,
      "Ġrapid": 3652,
      "ĠTechn": 3653,
      "Ġawareness": 3654,
      "duc": 3655,
      "ler": 3656,
      "Ġprior": 3657,
      "ĠNorth": 3658,
      "Ġteaching": 3659,
      "Ġvirus": 3660,
      "Ġcateg": 3661,
      "ille": 3662,
      "Ġvariety": 3663,
      "zz": 3664,
      "ĠExpl": 3665,
      "åĪ": 3666,
      "used": 3667,
      "Ġtrade": 3668,
      "Ġgenerations": 3669,
      "Ġopportunity": 3670,
      "Ġsustainable": 3671,
      "Ġcomprehens": 3672,
      "Ġhost": 3673,
      "Ġadvant": 3674,
      "Ġapplication": 3675,
      "Ġdang": 3676,
      "Ġguide": 3677,
      "Ġresilience": 3678,
      "uild": 3679,
      "Ġlack": 3680,
      "Ġestablished": 3681,
      "Ġtru": 3682,
      "100": 3683,
      "rong": 3684,
      "Ġvit": 3685,
      "Ġadjust": 3686,
      "Ġmanage": 3687,
      "Ġsigns": 3688,
      "Ġshaping": 3689,
      "oud": 3690,
      "Ġadults": 3691,
      "Ġeat": 3692,
      "Ġdecl": 3693,
      "Ġtheory": 3694,
      "Ġeating": 3695,
      "Ġstore": 3696,
      "rome": 3697,
      "Ġdistance": 3698,
      "ifying": 3699,
      "ipl": 3700,
      "Ġtraditions": 3701,
      "Ġacad": 3702,
      "ï¼Į": 3703,
      "ĠEurope": 3704,
      "plot": 3705,
      "Ġincred": 3706,
      "return": 3707,
      "Ġtrend": 3708,
      "Ġhot": 3709,
      "ĠDevelop": 3710,
      "Ġcred": 3711,
      "Ġdiseases": 3712,
      "ana": 3713,
      "Ġplayer": 3714,
      "Ġcarry": 3715,
      "Ġrisks": 3716,
      "ĠCommun": 3717,
      "iable": 3718,
      "ĠAccording": 3719,
      "ĠDep": 3720,
      "Ġbirth": 3721,
      "60": 3722,
      "Ġonto": 3723,
      "ĠDis": 3724,
      "ĠDuring": 3725,
      "Ġimages": 3726,
      "ought": 3727,
      "Ġworkers": 3728,
      "Ġstri": 3729,
      "AL": 3730,
      "year": 3731,
      "que": 3732,
      "being": 3733,
      "Ġdocument": 3734,
      "Ġimmedi": 3735,
      "Ġtrees": 3736,
      "Ġbond": 3737,
      "Ġminutes": 3738,
      "ĠAlthough": 3739,
      "Ġ198": 3740,
      "Ġpublished": 3741,
      "Ġfinal": 3742,
      "Ġdry": 3743,
      "inks": 3744,
      "Ġbodies": 3745,
      "Ġcontains": 3746,
      "Ġcover": 3747,
      "Ġdidn": 3748,
      "Ġpow": 3749,
      "Ġbur": 3750,
      "sem": 3751,
      "Ġqual": 3752,
      "Ġcapac": 3753,
      "ino": 3754,
      "Ġhappens": 3755,
      "Ġincreasingly": 3756,
      "Ġder": 3757,
      "Ġdistribution": 3758,
      "Ġearlier": 3759,
      "ĠCount": 3760,
      "Ġwis": 3761,
      "Ġthous": 3762,
      "anging": 3763,
      "Ġfinding": 3764,
      "Conclusion": 3765,
      "Ġ!=": 3766,
      "ĠSchool": 3767,
      "Ġ11": 3768,
      "Ġillustr": 3769,
      "Ġtherap": 3770,
      "Ġlived": 3771,
      "Ġadvance": 3772,
      "iveness": 3773,
      "ingu": 3774,
      "Ġmessage": 3775,
      "ĠBritish": 3776,
      "ding": 3777,
      "unction": 3778,
      "Ġscreen": 3779,
      "Ġphilos": 3780,
      "Ġbenefit": 3781,
      "Ġlaws": 3782,
      "ĠAfrican": 3783,
      "Ġalternative": 3784,
      "df": 3785,
      "Ġmid": 3786,
      "Ġhar": 3787,
      "ĠSm": 3788,
      "Ġbeliefs": 3789,
      "rition": 3790,
      "Ġseeking": 3791,
      "Ġdemand": 3792,
      "Ġfront": 3793,
      "Ġartists": 3794,
      "IT": 3795,
      "ev": 3796,
      "arian": 3797,
      "Ġapply": 3798,
      "Ġacqu": 3799,
      "reate": 3800,
      "ĠMe": 3801,
      "Ġtend": 3802,
      "Ġhyp": 3803,
      "ĠĠĠĠĠĠĠĠĊ": 3804,
      "Ġcoord": 3805,
      "Ġsoftware": 3806,
      "Ġfacilit": 3807,
      "Pro": 3808,
      "Ġwatch": 3809,
      "uman": 3810,
      "Ġourselves": 3811,
      "Ġthemes": 3812,
      "Ġlimit": 3813,
      "Ġeye": 3814,
      "ĠInter": 3815,
      "Ġcolon": 3816,
      "Ġdim": 3817,
      "Ġhosp": 3818,
      "ĠEast": 3819,
      "ĠComp": 3820,
      "Ġconstit": 3821,
      "osition": 3822,
      "ĠRet": 3823,
      "Ġfaced": 3824,
      "Ġsounds": 3825,
      "Ġmut": 3826,
      "idents": 3827,
      "ĠPart": 3828,
      "Ġtasks": 3829,
      "mber": 3830,
      "Ġlabor": 3831,
      "Ġsevere": 3832,
      "Ġproperty": 3833,
      "Ġrepresents": 3834,
      "cious": 3835,
      "idden": 3836,
      "And": 3837,
      "Ġir": 3838,
      "Ġheld": 3839,
      "Ġintric": 3840,
      "Ġpoll": 3841,
      "Ġessay": 3842,
      "Ġdetermine": 3843,
      "!\"": 3844,
      "zing": 3845,
      "orial": 3846,
      "Ġblock": 3847,
      "ãģ": 3848,
      "Ġmil": 3849,
      "ĠThen": 3850,
      "ether": 3851,
      "Ġbacter": 3852,
      "Ġalgorith": 3853,
      "Ġanything": 3854,
      "me": 3855,
      "Ġcamp": 3856,
      "List": 3857,
      "Ġsort": 3858,
      "Ġbrought": 3859,
      "Ġthus": 3860,
      "Ġang": 3861,
      "ĠBo": 3862,
      "na": 3863,
      "airs": 3864,
      "Ġinteresting": 3865,
      "Ġsea": 3866,
      "main": 3867,
      "Ġcounter": 3868,
      "ĠHere": 3869,
      "Ġlanguages": 3870,
      "Ġprofessionals": 3871,
      "Ġmother": 3872,
      "Ġpieces": 3873,
      "Ġprop": 3874,
      "Ġrock": 3875,
      "Ġquant": 3876,
      "Ġinstr": 3877,
      "ĠAre": 3878,
      "ogen": 3879,
      "Ġmachine": 3880,
      "âłĦ": 3881,
      "iced": 3882,
      "Ġbill": 3883,
      "Ġforces": 3884,
      "Ġexamine": 3885,
      "Ġdiversity": 3886,
      "can": 3887,
      "making": 3888,
      "ĠMon": 3889,
      "Ġadminist": 3890,
      "Ġaffected": 3891,
      "Ġexamining": 3892,
      "Ġcook": 3893,
      "Ġpeace": 3894,
      "iences": 3895,
      "Ġdark": 3896,
      "Ġaccom": 3897,
      "Ġproperties": 3898,
      "inated": 3899,
      "ĠUse": 3900,
      "ypes": 3901,
      "book": 3902,
      "Ġfelt": 3903,
      "Ġpregn": 3904,
      "Ġexplain": 3905,
      "Ġcam": 3906,
      "Ġwon": 3907,
      "Ġlat": 3908,
      "Ġheight": 3909,
      "Ġshown": 3910,
      "Ġlocation": 3911,
      "Ġpurpose": 3912,
      "Ġsupply": 3913,
      "Ġmob": 3914,
      "ĠPat": 3915,
      "Ġmemory": 3916,
      "Ġprotein": 3917,
      "ĠFe": 3918,
      "Ġcomplet": 3919,
      "Ġrespond": 3920,
      "ober": 3921,
      "Ġnews": 3922,
      "pected": 3923,
      "Ġhighly": 3924,
      "Ġplanet": 3925,
      "ĠInstead": 3926,
      "With": 3927,
      "iers": 3928,
      "Ġgoes": 3929,
      "Ġcausing": 3930,
      "aught": 3931,
      "Ġingredients": 3932,
      "Ġproced": 3933,
      "ĠEven": 3934,
      "Ġserious": 3935,
      "max": 3936,
      "eters": 3937,
      "Ġleaves": 3938,
      "Ġpref": 3939,
      "irection": 3940,
      "æķ°": 3941,
      "oll": 3942,
      "ula": 3943,
      "Ġurban": 3944,
      "ued": 3945,
      "Ġcogn": 3946,
      "resp": 3947,
      "ĠMin": 3948,
      "Ġroles": 3949,
      "Ġequal": 3950,
      "icing": 3951,
      "Ġtoward": 3952,
      "Ġfeeling": 3953,
      "ĠGl": 3954,
      "ĠGo": 3955,
      "ffic": 3956,
      "Ġready": 3957,
      "ister": 3958,
      "Ġpoor": 3959,
      "ilitary": 3960,
      "Ġmount": 3961,
      "ibilities": 3962,
      ".)": 3963,
      "aur": 3964,
      "mission": 3965,
      "Ġpage": 3966,
      "Ġfoot": 3967,
      "ĠOther": 3968,
      "Ġwanted": 3969,
      "Ġexposure": 3970,
      "Ġreality": 3971,
      "root": 3972,
      "usive": 3973,
      "ĠState": 3974,
      "Ġstudying": 3975,
      "ocks": 3976,
      "Ġamazing": 3977,
      "Ġjustice": 3978,
      "Ġschol": 3979,
      "ĠPython": 3980,
      "ĠDon": 3981,
      "ĠNe": 3982,
      "Ġworldwide": 3983,
      "Ġpossess": 3984,
      "Ġinnovative": 3985,
      "sec": 3986,
      "Ġdetail": 3987,
      "Ġstarting": 3988,
      "Ġ(\"": 3989,
      "Ġworry": 3990,
      "Ġmaybe": 3991,
      "Ġenter": 3992,
      "Ġveh": 3993,
      "vest": 3994,
      "Ġfiction": 3995,
      "state": 3996,
      "Ġfamous": 3997,
      "Ġwonder": 3998,
      "Ġfeet": 3999,
      "Ġdecre": 4000,
      "uth": 4001,
      "Ġitem": 4002,
      "Ġhear": 4003,
      "Ġdetails": 4004,
      "Ġmovements": 4005,
      "Bob": 4006,
      "Ġexch": 4007,
      "Ġdisplay": 4008,
      "Ġincorporating": 4009,
      "itage": 4010,
      "Ġwent": 4011,
      "Ġwhose": 4012,
      "Ġmouth": 4013,
      "ĠRuss": 4014,
      "Ġconstant": 4015,
      "Ġarchitect": 4016,
      "Ġgather": 4017,
      "cean": 4018,
      "Ġcreativity": 4019,
      "hemat": 4020,
      "Ġtiss": 4021,
      "Ġtrack": 4022,
      "Ġcontroll": 4023,
      "load": 4024,
      "40": 4025,
      "rate": 4026,
      "Ġtou": 4027,
      "Ġbit": 4028,
      "Ġbecoming": 4029,
      "Ġhighlight": 4030,
      "Ġsus": 4031,
      "Ġswe": 4032,
      "Ġdou": 4033,
      "ĠĠĠĠĠĠĠĠĠĠĠĠĠĠĠĠĠĠĠĠĠĠĠ": 4034,
      "Ġprepar": 4035,
      "Ġexpression": 4036,
      "ault": 4037,
      "Ġsix": 4038,
      "Ġphen": 4039,
      "Ġweak": 4040,
      "Ġsolid": 4041,
      "VID": 4042,
      "bal": 4043,
      "iding": 4044,
      "Ġdirectly": 4045,
      "Ġcitizens": 4046,
      "ĠMus": 4047,
      "ffect": 4048,
      "Ġkeeping": 4049,
      "Ġchoice": 4050,
      "Ġpen": 4051,
      "Ġrepl": 4052,
      "char": 4053,
      "Ġadvoc": 4054,
      "Ġreducing": 4055,
      "Ġtesting": 4056,
      "Ġrequirements": 4057,
      "ares": 4058,
      "Ġtransl": 4059,
      "Ġwide": 4060,
      "overn": 4061,
      "ĠPeople": 4062,
      "Ġpand": 4063,
      "ask": 4064,
      "estic": 4065,
      "ription": 4066,
      "ĠHave": 4067,
      "AC": 4068,
      "Ġnote": 4069,
      "Ġcolors": 4070,
      "Ġcarefully": 4071,
      "lim": 4072,
      "atur": 4073,
      "Ġdeal": 4074,
      "raft": 4075,
      "Ġenvironments": 4076,
      "ĠIndian": 4077,
      "Ġeducational": 4078,
      "ees": 4079,
      "RE": 4080,
      "Ġguess": 4081,
      "Ġadvanced": 4082,
      "eks": 4083,
      "Ġsaw": 4084,
      "Ġdepending": 4085,
      "Here": 4086,
      "Ġweather": 4087,
      "Ġleaders": 4088,
      "ĠTrans": 4089,
      "ius": 4090,
      "Ġintellig": 4091,
      "Ġ40": 4092,
      "Ġbox": 4093,
      "Ġeconomy": 4094,
      "Ġcou": 4095,
      "åħ": 4096,
      "ometimes": 4097,
      "Ġgir": 4098,
      "ĠRed": 4099,
      "Ġgradu": 4100,
      "Ġstandards": 4101,
      "rial": 4102,
      "Ġearth": 4103,
      "urb": 4104,
      "Ġ197": 4105,
      "Ġexec": 4106,
      "Ġremind": 4107,
      "Ġfundam": 4108,
      "cont": 4109,
      "Ġball": 4110,
      "ira": 4111,
      "Ġcentral": 4112,
      "ĠEuropean": 4113,
      "OU": 4114,
      "Ġexpert": 4115,
      "Ġsexual": 4116,
      "Ð»": 4117,
      "Ġexperienced": 4118,
      "Another": 4119,
      "Ad": 4120,
      "Ġvacc": 4121,
      "Ġrecip": 4122,
      "Ġsurpr": 4123,
      "Ġconsequences": 4124,
      "Ġongoing": 4125,
      "Ġ\")": 4126,
      "Ġvalid": 4127,
      "Ġmiddle": 4128,
      "Ġengagement": 4129,
      "ĠCourse": 4130,
      "ructure": 4131,
      "Ġconnected": 4132,
      "Ġinterests": 4133,
      "Ġnetworks": 4134,
      "ned": 4135,
      "Ġdream": 4136,
      "ivating": 4137,
      "rupt": 4138,
      "Ġauthors": 4139,
      "========": 4140,
      "First": 4141,
      "Ġnation": 4142,
      "While": 4143,
      "Ġconstruction": 4144,
      "ĠAustral": 4145,
      "gy": 4146,
      "Ġalone": 4147,
      "ube": 4148,
      "rench": 4149,
      "Ġmatrix": 4150,
      "Ġfaith": 4151,
      "Ġexcess": 4152,
      "Ġresource": 4153,
      "These": 4154,
      "Ġreduced": 4155,
      "Ġhabit": 4156,
      "sect": 4157,
      "Ġinstruct": 4158,
      "unch": 4159,
      "Ġassign": 4160,
      "Ġaddressing": 4161,
      "wo": 4162,
      "Ġletter": 4163,
      "Ġmentioned": 4164,
      "lear": 4165,
      "Ġdetect": 4166,
      "Ġchanging": 4167,
      "Ġsmooth": 4168,
      "NA": 4169,
      "ĠVal": 4170,
      "Ġglass": 4171,
      "Ġensures": 4172,
      "Ġdoctor": 4173,
      "ĠÂ": 4174,
      "oding": 4175,
      "Ġdrug": 4176,
      "Ġlost": 4177,
      "Ġspaces": 4178,
      "Ġnums": 4179,
      "Ġoperations": 4180,
      "bit": 4181,
      "ĠId": 4182,
      "ogle": 4183,
      "Ġestim": 4184,
      "ĠRead": 4185,
      "ibly": 4186,
      "Ġprivate": 4187,
      "Ġgets": 4188,
      "Ġsocietal": 4189,
      "rical": 4190,
      "Ġ_": 4191,
      "abel": 4192,
      "Ġaren": 4193,
      "Ġobtain": 4194,
      "########": 4195,
      "Ġcollaboration": 4196,
      "Ġanxiety": 4197,
      "atin": 4198,
      "icious": 4199,
      "Ġinvolving": 4200,
      "[:": 4201,
      "lam": 4202,
      "ĠYork": 4203,
      "Ġdepend": 4204,
      "Ġsold": 4205,
      "Ġcooking": 4206,
      "Ġgiving": 4207,
      "umber": 4208,
      "ĠScience": 4209,
      "ĠAfrica": 4210,
      "onic": 4211,
      "Ġalign": 4212,
      "force": 4213,
      "lict": 4214,
      "Ġfields": 4215,
      "Ġbelong": 4216,
      "appy": 4217,
      "However": 4218,
      "heets": 4219,
      "reet": 4220,
      "Ġcities": 4221,
      "Ġinstitutions": 4222,
      "âłĦâłĦ": 4223,
      "itch": 4224,
      "Ġleave": 4225,
      "Ġvary": 4226,
      "ĠFran": 4227,
      "Ġorganization": 4228,
      "ball": 4229,
      "ĠSw": 4230,
      "ĠPract": 4231,
      "cil": 4232,
      "Ġthird": 4233,
      "ĠRel": 4234,
      "ĠSimilarly": 4235,
      "'.": 4236,
      "Ġeffort": 4237,
      "Ar": 4238,
      "ĠJes": 4239,
      "ensions": 4240,
      "Ġuseful": 4241,
      "Ġproduced": 4242,
      "Ġfigure": 4243,
      "Ġplatforms": 4244,
      "Ġden": 4245,
      "oles": 4246,
      "Ġpropos": 4247,
      "ternal": 4248,
      "ocr": 4249,
      "Ġtherefore": 4250,
      "ĠWorks": 4251,
      "ented": 4252,
      "Ġoffering": 4253,
      "ception": 4254,
      "Ġ2018": 4255,
      "Ġcenter": 4256,
      "Ġsymbol": 4257,
      "Ġnavigate": 4258,
      "Ġ)": 4259,
      "ĠâĢ¦": 4260,
      "Ġnutri": 4261,
      "Ġcapacity": 4262,
      "iance": 4263,
      "Ġwrong": 4264,
      "Ġattract": 4265,
      "Ġreceive": 4266,
      "Ġdialog": 4267,
      "path": 4268,
      "ĠGree": 4269,
      "Ġempathy": 4270,
      "Ġgold": 4271,
      "otic": 4272,
      "Ġenable": 4273,
      "akers": 4274,
      "Why": 4275,
      "On": 4276,
      "Ġcand": 4277,
      "ĠSystem": 4278,
      "ken": 4279,
      "Alice": 4280,
      "issions": 4281,
      "Ġplayed": 4282,
      "Ġresulting": 4283,
      "Ġfoster": 4284,
      "He": 4285,
      "water": 4286,
      "rows": 4287,
      "Ġfindings": 4288,
      "ĠProg": 4289,
      "ĠList": 4290,
      "Ġeasier": 4291,
      "Ġdevice": 4292,
      "ĠCOVID": 4293,
      "Ġforeign": 4294,
      "Ġstatus": 4295,
      "Ġburn": 4296,
      "istry": 4297,
      "Ġparent": 4298,
      "ottom": 4299,
      "Ġdate": 4300,
      "Ġrunning": 4301,
      "Ġreceived": 4302,
      "Ġteacher": 4303,
      "ygen": 4304,
      "Ġvict": 4305,
      "ĠDes": 4306,
      "split": 4307,
      "Ġcommand": 4308,
      "Ġincluded": 4309,
      "Ġmoving": 4310,
      "Ġchoices": 4311,
      "Ġnames": 4312,
      "ĠEduc": 4313,
      "Ġlocated": 4314,
      "ĠMost": 4315,
      "Ġgenerally": 4316,
      "ĠKing": 4317,
      "Ġinfect": 4318,
      "True": 4319,
      "hand": 4320,
      "mosp": 4321,
      "Ġpush": 4322,
      "ĠSur": 4323,
      "Ġworth": 4324,
      "Ġadding": 4325,
      "Ġappreciation": 4326,
      "ĠHistory": 4327,
      "ensity": 4328,
      "Ġleads": 4329,
      "23": 4330,
      "IC": 4331,
      "sol": 4332,
      "Ġsugar": 4333,
      "ĠThink": 4334,
      "Ġcreation": 4335,
      "Ġapprox": 4336,
      "eech": 4337,
      "aid": 4338,
      "Ġreasons": 4339,
      "rie": 4340,
      "Ġanyone": 4341,
      "www": 4342,
      "bin": 4343,
      "Ġprocessing": 4344,
      "Ġpicture": 4345,
      "Before": 4346,
      "Ġcrop": 4347,
      "amil": 4348,
      "Ġfocused": 4349,
      "Ġolder": 4350,
      "Ġfuel": 4351,
      "Ġtopic": 4352,
      "hab": 4353,
      "ky": 4354,
      "mp": 4355,
      "Ġallowed": 4356,
      "Ġinfluen": 4357,
      "Ġvariable": 4358,
      "Ġbroader": 4359,
      "Ġreveal": 4360,
      "ulated": 4361,
      "asts": 4362,
      "Ġroll": 4363,
      "Ġexpected": 4364,
      "Ġmole": 4365,
      "Ġju": 4366,
      "Ġimproved": 4367,
      "iosity": 4368,
      "Ġindigenous": 4369,
      "Ġattack": 4370,
      "Ġpreserv": 4371,
      "Ġloved": 4372,
      "Ġtechnique": 4373,
      "Ġconflict": 4374,
      "Ġpurch": 4375,
      "ĠKeep": 4376,
      "Ġincredible": 4377,
      "ST": 4378,
      "Ġcold": 4379,
      "Ġdefin": 4380,
      "ĠSpec": 4381,
      "Ġ<=": 4382,
      "ded": 4383,
      "Ġtask": 4384,
      "Ġdrugs": 4385,
      "train": 4386,
      "arg": 4387,
      "Ġmig": 4388,
      "Ġsettings": 4389,
      "Ġinformed": 4390,
      "Ġencourage": 4391,
      "Ġmilitary": 4392,
      "Ġtrain": 4393,
      "Cl": 4394,
      "po": 4395,
      "orage": 4396,
      "Ġrule": 4397,
      "ogether": 4398,
      "Ġresistance": 4399,
      "formation": 4400,
      "useum": 4401,
      "Ġapplied": 4402,
      "Ġì": 4403,
      "Ġtests": 4404,
      "Ġvast": 4405,
      "ishing": 4406,
      "Ġincome": 4407,
      "Ġdiscussions": 4408,
      "ĠDef": 4409,
      "Ġreported": 4410,
      "mod": 4411,
      "Ġmere": 4412,
      "ĠAI": 4413,
      "Ġcoming": 4414,
      "ĠĠĠĠĠĠĠĠĠĠĠĠ": 4415,
      "Ġprep": 4416,
      "Ġlandscape": 4417,
      "Ġegg": 4418,
      "âĢĿ.": 4419,
      "Ġsave": 4420,
      "Ġsong": 4421,
      "Ġpal": 4422,
      "Ġhous": 4423,
      "Ġweeks": 4424,
      "Ġsports": 4425,
      "Ġprice": 4426,
      "Ġhelped": 4427,
      "ĠUsing": 4428,
      "Ġregions": 4429,
      "Ġattempt": 4430,
      "known": 4431,
      "Ġthousands": 4432,
      "Ġpet": 4433,
      "raction": 4434,
      "Ġrecommend": 4435,
      "game": 4436,
      "Ġsess": 4437,
      "Ġfix": 4438,
      "ĠIts": 4439,
      "cking": 4440,
      "ĠMr": 4441,
      "Ġrare": 4442,
      "Ġtransfer": 4443,
      "Ġpassed": 4444,
      "ĠJesus": 4445,
      "uls": 4446,
      "ĠAc": 4447,
      "Ġpopulations": 4448,
      "Ġrise": 4449,
      "Ġresponsibility": 4450,
      "Ġillness": 4451,
      "Ġphenomen": 4452,
      "Ġstra": 4453,
      "ĠChe": 4454,
      "ournal": 4455,
      "AD": 4456,
      "LE": 4457,
      "ä»": 4458,
      "Ġsmart": 4459,
      "Ġinfection": 4460,
      "Ġhappen": 4461,
      "Ġsites": 4462,
      "Ġlargest": 4463,
      "ictionary": 4464,
      "with": 4465,
      "icip": 4466,
      "ĠSar": 4467,
      "Ġ24": 4468,
      "Ġbeginning": 4469,
      "nam": 4470,
      "Ġtour": 4471,
      "Ġstrengt": 4472,
      "Ġplans": 4473,
      "Ġfactor": 4474,
      "99": 4475,
      "ups": 4476,
      "Ġblue": 4477,
      "Ġcourt": 4478,
      "Ġstrategy": 4479,
      "iate": 4480,
      "ĠMat": 4481,
      "Ġadventure": 4482,
      "à¸": 4483,
      "Ġexhib": 4484,
      "Ġvibr": 4485,
      "ocal": 4486,
      "Ġunf": 4487,
      "Ġtrial": 4488,
      "Ġcircum": 4489,
      "dis": 4490,
      "ias": 4491,
      "point": 4492,
      "inf": 4493,
      "Ġfamiliar": 4494,
      "Ġfully": 4495,
      "ingly": 4496,
      "Ġrepe": 4497,
      "Ġmarg": 4498,
      "Ġeventually": 4499,
      "ulner": 4500,
      "Ġexperiment": 4501,
      "Ġfrequently": 4502,
      "Ġscenar": 4503,
      "ĠInternational": 4504,
      "Ġroad": 4505,
      "Ġremove": 4506,
      "Ġdiabetes": 4507,
      "ourage": 4508,
      "hol": 4509,
      "osystem": 4510,
      "Ġenab": 4511,
      "ĠWelcome": 4512,
      "Ġimpacts": 4513,
      "Ġspiritual": 4514,
      "bra": 4515,
      "sv": 4516,
      "ĠWill": 4517,
      "\",\"": 4518,
      "met": 4519,
      "Ġpick": 4520,
      "Ġstyle": 4521,
      "Ġefficiency": 4522,
      "Ġfilm": 4523,
      "90": 4524,
      "Ġwoman": 4525,
      "urtle": 4526,
      "Ġfollowed": 4527,
      "Ġphilosoph": 4528,
      ".__": 4529,
      "Ġtex": 4530,
      "Ġvision": 4531,
      "ecause": 4532,
      "Ġrace": 4533,
      "Ġcharacteristics": 4534,
      "Ġmedicine": 4535,
      "off": 4536,
      "Ġgenetic": 4537,
      "____": 4538,
      "Ġfemale": 4539,
      "45": 4540,
      "Node": 4541,
      "Pl": 4542,
      "pan": 4543,
      "udd": 4544,
      "Ġperhaps": 4545,
      "strict": 4546,
      "Ġlibrary": 4547,
      "imal": 4548,
      "ĠII": 4549,
      "Ġscale": 4550,
      "Ġsolve": 4551,
      "Ġcapable": 4552,
      "Un": 4553,
      "fit": 4554,
      "iant": 4555,
      "Ġflex": 4556,
      "Ġnative": 4557,
      "rief": 4558,
      "ĠGra": 4559,
      "Ġprefer": 4560,
      "undred": 4561,
      "Ġguidelines": 4562,
      "Ġlabel": 4563,
      "Ġtail": 4564,
      "inter": 4565,
      "Ġmist": 4566,
      "section": 4567,
      "Ġunex": 4568,
      "Ġraise": 4569,
      "Ġassist": 4570,
      "Ġseek": 4571,
      "Ġcontinues": 4572,
      "Ġrecognize": 4573,
      "********": 4574,
      "Ġ2017": 4575,
      "ĠAmericans": 4576,
      "33": 4577,
      "uit": 4578,
      "Ġtold": 4579,
      "vironment": 4580,
      "Ġalongside": 4581,
      "21": 4582,
      "pop": 4583,
      "icated": 4584,
      "Ġacademic": 4585,
      "Ġcognitive": 4586,
      "ping": 4587,
      "else": 4588,
      "urance": 4589,
      "Ġgives": 4590,
      "start": 4591,
      "ĠDec": 4592,
      "Ġspot": 4593,
      "Ġplot": 4594,
      "Ġamid": 4595,
      "Ġworked": 4596,
      "Ġcreates": 4597,
      "Ġbaby": 4598,
      "Ġearn": 4599,
      "Ġexploration": 4600,
      "Ġguidance": 4601,
      "hetic": 4602,
      "lines": 4603,
      "Ġmal": 4604,
      "Ġpractical": 4605,
      "Ġimmune": 4606,
      "Ġload": 4607,
      "Ġmotiv": 4608,
      "Ġfigures": 4609,
      "Ġfloat": 4610,
      "Ġclinical": 4611,
      "uzz": 4612,
      "ĠGreat": 4613,
      "ĠJew": 4614,
      "ĠTherefore": 4615,
      "Ġinnovation": 4616,
      "Ġcompletely": 4617,
      "Introduction": 4618,
      "Ġfundamental": 4619,
      "ny": 4620,
      "çĶ": 4621,
      "inc": 4622,
      "Ġcollection": 4623,
      "Ġcuriosity": 4624,
      "åĲ": 4625,
      "Ġborn": 4626,
      "idth": 4627,
      "Ġultimately": 4628,
      "Ġten": 4629,
      "ĠHappy": 4630,
      "oves": 4631,
      "Ġmathemat": 4632,
      "respond": 4633,
      "Ġtexts": 4634,
      ")):": 4635,
      "Ġchance": 4636,
      "ightly": 4637,
      "string": 4638,
      "Ġlies": 4639,
      "Ġleadership": 4640,
      "Ġdefined": 4641,
      "Ġclosely": 4642,
      "ĠAlex": 4643,
      "ama": 4644,
      "Ġalthough": 4645,
      "ildren": 4646,
      "ords": 4647,
      "ĠIntroduction": 4648,
      "Ġdynamics": 4649,
      "Ġhidden": 4650,
      "osen": 4651,
      "ĠJu": 4652,
      "Ġfruit": 4653,
      "apes": 4654,
      "Ġatmosp": 4655,
      "hips": 4656,
      "Ġmanaging": 4657,
      "ĠInstit": 4658,
      "Ġoxygen": 4659,
      "TH": 4660,
      "tr": 4661,
      "uing": 4662,
      "enty": 4663,
      "Ġreturns": 4664,
      "Ġobst": 4665,
      "Ġbuy": 4666,
      "Ġclasses": 4667,
      "Ġsquare": 4668,
      "house": 4669,
      "Ġmel": 4670,
      "Ġoccurs": 4671,
      "ĠSocial": 4672,
      "Ã¡": 4673,
      "ara": 4674,
      "rote": 4675,
      "Ġadult": 4676,
      "Ġdisorder": 4677,
      "ressive": 4678,
      "Ġ2019": 4679,
      "Ġaimed": 4680,
      "Ġlayer": 4681,
      "Ġmonitoring": 4682,
      "eries": 4683,
      "Ġcry": 4684,
      "ĠAut": 4685,
      "acing": 4686,
      "iber": 4687,
      "Ġexplained": 4688,
      "tered": 4689,
      "Ġsuppl": 4690,
      "Ġboundaries": 4691,
      "Ġtruly": 4692,
      "grid": 4693,
      "ĠDay": 4694,
      "Ġcompar": 4695,
      "gment": 4696,
      "orb": 4697,
      "ndrome": 4698,
      "ederal": 4699,
      "eline": 4700,
      "Ġconvent": 4701,
      "Ġvulner": 4702,
      "Ġletters": 4703,
      "ĠAdd": 4704,
      "Ġindustrial": 4705,
      "da": 4706,
      "ĠFrench": 4707,
      "Ġpresence": 4708,
      "Ġpotentially": 4709,
      "Ġmuscle": 4710,
      "Chapter": 4711,
      "Ġfant": 4712,
      "Ġhair": 4713,
      "Ġboil": 4714,
      "Ġinternal": 4715,
      "Ġconsumption": 4716,
      "Ġviolence": 4717,
      "dr": 4718,
      "åŃ": 4719,
      "ĠSometimes": 4720,
      "Ġabilities": 4721,
      "Ġassum": 4722,
      "Ġintricate": 4723,
      "ĠSet": 4724,
      "ĠData": 4725,
      "ĠLife": 4726,
      "Ġdisorders": 4727,
      "Ġgenerate": 4728,
      "Ġbran": 4729,
      "Ġwalk": 4730,
      "ta": 4731,
      "uk": 4732,
      "Ġvirtual": 4733,
      "cop": 4734,
      "ss": 4735,
      "yles": 4736,
      "Ġdirection": 4737,
      "idge": 4738,
      "Ġdram": 4739,
      "iration": 4740,
      "Ġpriv": 4741,
      "TS": 4742,
      "Ġdivid": 4743,
      "agon": 4744,
      "Ġ2016": 4745,
      "Ġtooth": 4746,
      "lev": 4747,
      "Ġstaff": 4748,
      "Ġpros": 4749,
      "ormal": 4750,
      "Ġwasn": 4751,
      "Ġaccurate": 4752,
      "Ġhom": 4753,
      "Ġvent": 4754,
      "Ġknows": 4755,
      "Ġactual": 4756,
      "Ġextract": 4757,
      "ĠMake": 4758,
      "Ġimproving": 4759,
      "Ġnuc": 4760,
      "Ġstream": 4761,
      "ĠEd": 4762,
      "Ġseems": 4763,
      "Ġecosystem": 4764,
      "rics": 4765,
      "Ġcareful": 4766,
      "Ġturned": 4767,
      "ipped": 4768,
      "rror": 4769,
      "Ġwat": 4770,
      "Ġenables": 4771,
      "Ġopin": 4772,
      "Ġhappened": 4773,
      "Ġcloser": 4774,
      "Ġnutrition": 4775,
      "cho": 4776,
      "pped": 4777,
      "Ġserves": 4778,
      "Ġoption": 4779,
      "Ġvegetables": 4780,
      "BT": 4781,
      "item": 4782,
      "alk": 4783,
      "ĠCanada": 4784,
      "rance": 4785,
      "Ġlesson": 4786,
      "Sc": 4787,
      "ocol": 4788,
      "Ġrot": 4789,
      "Ġcoast": 4790,
      "roduct": 4791,
      "Ġbacteria": 4792,
      "Sh": 4793,
      "vis": 4794,
      "Ġprimarily": 4795,
      "Ġsatis": 4796,
      "Ġwisdom": 4797,
      "Ġbul": 4798,
      "Ġmap": 4799,
      "ĠCult": 4800,
      "Ġleaving": 4801,
      "ĠDisc": 4802,
      "Ġcontrast": 4803,
      "position": 4804,
      "ographic": 4805,
      "ĠOrgan": 4806,
      "Ġrecords": 4807,
      "ĠConsider": 4808,
      "ĠIdent": 4809,
      "ij": 4810,
      "Ġcontract": 4811,
      "conn": 4812,
      "Ġcareer": 4813,
      "Ġclassroom": 4814,
      "ĠIslam": 4815,
      "ris": 4816,
      "ellect": 4817,
      "Ġmeat": 4818,
      "Ġdiscussion": 4819,
      "Ġinteractions": 4820,
      "Is": 4821,
      "Ġvill": 4822,
      "Ġexperts": 4823,
      "Ġheritage": 4824,
      "Ġanti": 4825,
      "Ġfruits": 4826,
      "uilding": 4827,
      "anish": 4828,
      "ĠAnt": 4829,
      "Ġunivers": 4830,
      "Ġmeaningful": 4831,
      "related": 4832,
      "rastructure": 4833,
      "unately": 4834,
      "ĠEvery": 4835,
      "Ġque": 4836,
      "Ġrecently": 4837,
      "Ġcorrespond": 4838,
      "sequently": 4839,
      "Ġtrends": 4840,
      "men": 4841,
      "Ġtiny": 4842,
      "Ġrestrict": 4843,
      "Ġshif": 4844,
      "\"]": 4845,
      "ped": 4846,
      "ĠEl": 4847,
      "Ġunderlying": 4848,
      "Ġknowing": 4849,
      "Ġprobably": 4850,
      "Ġsample": 4851,
      "Ġmaster": 4852,
      "Ġstim": 4853,
      "orical": 4854,
      "Ġdistribut": 4855,
      "Ġ60": 4856,
      "Ġhundred": 4857,
      "othes": 4858,
      "Ġperspective": 4859,
      "Ġintelligence": 4860,
      "cell": 4861,
      "down": 4862,
      "Ġhomes": 4863,
      "Ġdepression": 4864,
      "Ġhimself": 4865,
      "ornia": 4866,
      "ä¸ª": 4867,
      "((": 4868,
      "Ġmember": 4869,
      "igure": 4870,
      "Ġscore": 4871,
      "Ġtechnological": 4872,
      "','": 4873,
      "Ġtreatments": 4874,
      "Ġinvestment": 4875,
      "Ġjournal": 4876,
      "After": 4877,
      "Ġice": 4878,
      "heet": 4879,
      "herent": 4880,
      "antic": 4881,
      "ĠLaw": 4882,
      "Ġfoundation": 4883,
      "Ġcris": 4884,
      "Ġmilk": 4885,
      "80": 4886,
      "RO": 4887,
      "ctor": 4888,
      "rence": 4889,
      "Ġheavy": 4890,
      "AM": 4891,
      "Ġexternal": 4892,
      "Ġchronic": 4893,
      "ĠWater": 4894,
      "Ġshowed": 4895,
      "Ġgarden": 4896,
      "tical": 4897,
      "Ġhero": 4898,
      "Ġofficial": 4899,
      "ĠWho": 4900,
      "Ġexciting": 4901,
      "Ġencourages": 4902,
      "othing": 4903,
      "Ġjobs": 4904,
      "Ġengineering": 4905,
      "Ġassessment": 4906,
      "Sp": 4907,
      "Ġsou": 4908,
      "roid": 4909,
      "Ġcompass": 4910,
      "Ġethical": 4911,
      "oses": 4912,
      "ĠPlan": 4913,
      "Ġintroduced": 4914,
      "Ġscholars": 4915,
      "icks": 4916,
      "ĠTitle": 4917,
      "Ġmatters": 4918,
      "Ġvolunt": 4919,
      "Ġbehaviors": 4920,
      "ĠGovern": 4921,
      "Ġcollective": 4922,
      "Ġexpectations": 4923,
      "Ġunexpected": 4924,
      "Ġpun": 4925,
      "Ġreplace": 4926,
      "esson": 4927,
      "ĠBoth": 4928,
      "ĠStep": 4929,
      "no": 4930,
      "Ġnothing": 4931,
      "Ġroots": 4932,
      "Enter": 4933,
      "ĠSarah": 4934,
      "result": 4935,
      "ĠWest": 4936,
      "roup": 4937,
      "Ġconsid": 4938,
      "Ġfreed": 4939,
      "Ġdrawing": 4940,
      "Ġversion": 4941,
      "Ġbarri": 4942,
      "Ġweb": 4943,
      "Ġspeech": 4944,
      "Ġdedicated": 4945,
      "np": 4946,
      "Ð¼": 4947,
      "Ġkid": 4948,
      "Ġsupporting": 4949,
      "Ġimmig": 4950,
      "ashing": 4951,
      "Ġcommunicate": 4952,
      "Ġwebsite": 4953,
      "22": 4954,
      "Ġstorage": 4955,
      "ayer": 4956,
      "Ġspect": 4957,
      "ĠThus": 4958,
      "Ġchanged": 4959,
      "Ġpursu": 4960,
      "Ġcircumst": 4961,
      "ams": 4962,
      "ĠServ": 4963,
      "Ġ21": 4964,
      "Ġtrig": 4965,
      "More": 4966,
      "Ġtaste": 4967,
      "atically": 4968,
      "ĠDespite": 4969,
      "ifornia": 4970,
      "Ġrelax": 4971,
      "Ġtemp": 4972,
      "Äģ": 4973,
      "Ġax": 4974,
      "Ġahead": 4975,
      "rees": 4976,
      "Ġdead": 4977,
      "Ġformat": 4978,
      "Ġgeneration": 4979,
      "Ġfing": 4980,
      "Ġdict": 4981,
      "------------": 4982,
      "pat": 4983,
      "Ġgar": 4984,
      "tery": 4985,
      "Ġcreatures": 4986,
      "Ġbreast": 4987,
      "ĠBlack": 4988,
      "Ġvibrant": 4989,
      "Ġsac": 4990,
      "ĠOb": 4991,
      "Ġsets": 4992,
      "Ġformed": 4993,
      "Ġprepared": 4994,
      "().": 4995,
      "Ġfert": 4996,
      "rip": 4997,
      "Ġliqu": 4998,
      "ĠWhy": 4999,
      "Ġgovernments": 5000,
      "Ġbasis": 5001,
      "Ġhydro": 5002,
      "itis": 5003,
      "ificial": 5004,
      "Ġpassion": 5005,
      "Ġbelieved": 5006,
      "Ġbeauty": 5007,
      "Ġdegree": 5008,
      "nic": 5009,
      "Ġtalking": 5010,
      "Ġsummer": 5011,
      "Ġelectricity": 5012,
      "fe": 5013,
      "Ġrein": 5014,
      "ĠChar": 5015,
      "Ġdecades": 5016,
      "Ġsecure": 5017,
      "Ġexcell": 5018,
      "Ġharmful": 5019,
      "Ġoptimal": 5020,
      "gu": 5021,
      "è¿": 5022,
      "Ġesc": 5023,
      "asion": 5024,
      "Ġmeant": 5025,
      "Ġmyth": 5026,
      "Ġcenturies": 5027,
      "Ġdescribed": 5028,
      "ĠLearning": 5029,
      "isher": 5030,
      "ĠHol": 5031,
      "Ġlinked": 5032,
      "hest": 5033,
      "Ġplt": 5034,
      "Ġtraum": 5035,
      "exic": 5036,
      "Ġdiscrim": 5037,
      "Ġdeliver": 5038,
      "ĠProf": 5039,
      "Ġideal": 5040,
      "player": 5041,
      "rich": 5042,
      "icit": 5043,
      "ultane": 5044,
      "Ġregional": 5045,
      "Ġassert": 5046,
      "words": 5047,
      "Ġcustomers": 5048,
      "inations": 5049,
      "Ġmo": 5050,
      "ĠSince": 5051,
      "ĠPower": 5052,
      "ĠUp": 5053,
      "Ġconsult": 5054,
      "Ġsuggests": 5055,
      "Ġapproximately": 5056,
      "ulating": 5057,
      "Ġround": 5058,
      "ĠOut": 5059,
      "Ġcommer": 5060,
      "Ġcommonly": 5061,
      "cohol": 5062,
      "Ġvariables": 5063,
      "rors": 5064,
      "Ġtrou": 5065,
      "Ġfab": 5066,
      "irus": 5067,
      "ĠSuch": 5068,
      "Ġalike": 5069,
      "Ġcontaining": 5070,
      "ĠJapanese": 5071,
      "Finally": 5072,
      "Ġbow": 5073,
      "ado": 5074,
      "ĠDi": 5075,
      "Ñĥ": 5076,
      "Ġincreases": 5077,
      "apping": 5078,
      "æĸ": 5079,
      "Ġhop": 5080,
      "ĠTim": 5081,
      "Ġnotes": 5082,
      "Ġparties": 5083,
      "Through": 5084,
      "Ġ>=": 5085,
      "Ġappe": 5086,
      "riting": 5087,
      "Ġagg": 5088,
      "Ġ196": 5089,
      "score": 5090,
      "oke": 5091,
      "ç»": 5092,
      "ager": 5093,
      "ĠJan": 5094,
      "Ġpersist": 5095,
      "Ġrepresentation": 5096,
      "Ġobserved": 5097,
      "Example": 5098,
      "Ġmaximum": 5099,
      "Com": 5100,
      "plt": 5101,
      "ĠHar": 5102,
      "Ġplaced": 5103,
      "Ġresol": 5104,
      "oving": 5105,
      "Ġdeeply": 5106,
      "Ġmeeting": 5107,
      "All": 5108,
      "za": 5109,
      "Ð²": 5110,
      "Ph": 5111,
      "width": 5112,
      "à¤": 5113,
      "Ġisol": 5114,
      "âĢ¢": 5115,
      "Ġchann": 5116,
      "Ġskill": 5117,
      "Ġminor": 5118,
      "Ġclearly": 5119,
      "Ġera": 5120,
      "Ġhttps": 5121,
      "ED": 5122,
      "EM": 5123,
      "Error": 5124,
      "cers": 5125,
      "pen": 5126,
      "{}": 5127,
      "Ġdra": 5128,
      "Ġnerv": 5129,
      "ologists": 5130,
      "Ġnumpy": 5131,
      "Ġinspired": 5132,
      ")]": 5133,
      "eli": 5134,
      "ĠSk": 5135,
      "Ġfacts": 5136,
      "Ġstrengthen": 5137,
      "isl": 5138,
      "Ġcompl": 5139,
      "Ġnotice": 5140,
      "Ġparticipants": 5141,
      "Ġconversations": 5142,
      "hus": 5143,
      "inant": 5144,
      "alt": 5145,
      "uration": 5146,
      "Ġattribut": 5147,
      "ĠAlso": 5148,
      "Ġstronger": 5149,
      "Ġid": 5150,
      "Ġath": 5151,
      "Ġacid": 5152,
      "ĠEducation": 5153,
      "ET": 5154,
      "Ġhuge": 5155,
      "ĠAug": 5156,
      "angle": 5157,
      "Ġseparate": 5158,
      "part": 5159,
      "pred": 5160,
      "etime": 5161,
      "ĠKore": 5162,
      "world": 5163,
      "Ġemerging": 5164,
      "Ġmessages": 5165,
      "Ġaccuracy": 5166,
      "Ġdatas": 5167,
      "Ġinitiatives": 5168,
      "uary": 5169,
      "Ġwit": 5170,
      "Ġbed": 5171,
      "Ġacknow": 5172,
      "Ġ2015": 5173,
      "ĠEngland": 5174,
      "Ġrevolution": 5175,
      "Ġvoice": 5176,
      "Ġgained": 5177,
      "ĠSam": 5178,
      "Ġelim": 5179,
      "Ġrealized": 5180,
      "Ġpresented": 5181,
      "Ġprinc": 5182,
      "Ġshapes": 5183,
      ",'": 5184,
      "Ind": 5185,
      "Us": 5186,
      "Ġdrop": 5187,
      "ĠSol": 5188,
      "Ġsuitable": 5189,
      "Ġcircumstances": 5190,
      "24": 5191,
      "Key": 5192,
      "Ðº": 5193,
      "inates": 5194,
      "action": 5195,
      "Ġidentified": 5196,
      "Ġbuildings": 5197,
      "Ġhappy": 5198,
      "Ġreligion": 5199,
      "ĠManagement": 5200,
      "ĠCalifornia": 5201,
      "ĠCounty": 5202,
      "oe": 5203,
      "ux": 5204,
      "itc": 5205,
      "Ġwellbeing": 5206,
      "Ġcollege": 5207,
      "Ġtissue": 5208,
      "flo": 5209,
      "Ġbud": 5210,
      "never": 5211,
      "Ġoperation": 5212,
      "ĠEnc": 5213,
      "Ġsav": 5214,
      "level": 5215,
      "Ġlooks": 5216,
      "ĠAv": 5217,
      "Ġneu": 5218,
      "Ġimplications": 5219,
      "ica": 5220,
      "Ġlooked": 5221,
      "Ġterrit": 5222,
      "Ġinternet": 5223,
      "Ġstatement": 5224,
      "æĺ": 5225,
      "Ġfaster": 5226,
      "iments": 5227,
      "Ġnearly": 5228,
      "Ġremark": 5229,
      "Ġ2014": 5230,
      "Ġfailure": 5231,
      "Once": 5232,
      "find": 5233,
      "itor": 5234,
      "Ġmer": 5235,
      "Ġlots": 5236,
      "Ġfollows": 5237,
      "Ġliterary": 5238,
      "Ġmechanisms": 5239,
      "Ġinjury": 5240,
      "Ġagriculture": 5241,
      "Ġexchange": 5242,
      "Ġmale": 5243,
      "Ġdefine": 5244,
      "Ġfacing": 5245,
      "Ġcombination": 5246,
      "Ġanalyze": 5247,
      "Ġbreath": 5248,
      "Ġmarginal": 5249,
      "iology": 5250,
      "Ġintellect": 5251,
      "Ġinfrastructure": 5252,
      "Ġmuscles": 5253,
      "gery": 5254,
      "Ġpictures": 5255,
      "Ġjoin": 5256,
      "Ġocean": 5257,
      "Ġfellow": 5258,
      "Ġnations": 5259,
      "ĠBra": 5260,
      "Ġknew": 5261,
      "avors": 5262,
      "Ġconscious": 5263,
      "Ġdesigns": 5264,
      "32": 5265,
      "vious": 5266,
      "hent": 5267,
      "Ġhit": 5268,
      "idential": 5269,
      "Ġshop": 5270,
      "Ġkn": 5271,
      "Ġlisten": 5272,
      "Ġmetal": 5273,
      "Ġperiods": 5274,
      "Act": 5275,
      "Ġsand": 5276,
      "Ġfill": 5277,
      "Ġtox": 5278,
      "Ġspent": 5279,
      "Ġmedium": 5280,
      "Ġgrade": 5281,
      "Ġembark": 5282,
      "Ġempower": 5283,
      "Ġraw": 5284,
      "Ġsecret": 5285,
      "Welcome": 5286,
      "Ġhunt": 5287,
      "Ġstability": 5288,
      "ĠRef": 5289,
      "licts": 5290,
      "ĠConf": 5291,
      "ĠClass": 5292,
      "ĠAssoci": 5293,
      "Ġamidst": 5294,
      "AP": 5295,
      "eria": 5296,
      "Ġrenew": 5297,
      "Ġlic": 5298,
      "asp": 5299,
      "asure": 5300,
      "ĠPress": 5301,
      "riage": 5302,
      "Ġevolution": 5303,
      "Ġinsight": 5304,
      "Ġserved": 5305,
      "Ġcutting": 5306,
      "top": 5307,
      "rest": 5308,
      "Ġconv": 5309,
      "outhern": 5310,
      "asting": 5311,
      "Ġcouldn": 5312,
      "ĠDevelopment": 5313,
      "Ġcompassion": 5314,
      "current": 5315,
      "length": 5316,
      "Â°": 5317,
      "Ġconver": 5318,
      "ĠHel": 5319,
      "anges": 5320,
      "Ġcomprehensive": 5321,
      "Ġstraight": 5322,
      "Ġenabling": 5323,
      "Ġshall": 5324,
      "Ġproperly": 5325,
      "ĠEnvironment": 5326,
      "Ġnearby": 5327,
      "Ġneighbor": 5328,
      "Ġembracing": 5329,
      "ĠčĊ": 5330,
      "Ġtips": 5331,
      "alysis": 5332,
      "Ġfather": 5333,
      "Ġsud": 5334,
      "Ġshift": 5335,
      "Ġupd": 5336,
      "Ġregulations": 5337,
      "Ġsocieties": 5338,
      "Ġimmediately": 5339,
      "tra": 5340,
      "inent": 5341,
      "Ġaid": 5342,
      "orough": 5343,
      "oma": 5344,
      "essor": 5345,
      "ags": 5346,
      "Ġprices": 5347,
      "Ġsignal": 5348,
      "Ġtap": 5349,
      "Ġcul": 5350,
      "ĠMexic": 5351,
      "Ġsynt": 5352,
      "Ġ2013": 5353,
      "Ġsolar": 5354,
      "ĠSpanish": 5355,
      "Ġresponses": 5356,
      "Ġindependent": 5357,
      "CO": 5358,
      "Our": 5359,
      "vas": 5360,
      "Ġseeds": 5361,
      "Ġ'''": 5362,
      "Ġmulti": 5363,
      "Ġbirds": 5364,
      "ĠDesign": 5365,
      "70": 5366,
      "sort": 5367,
      "rab": 5368,
      "Ġvot": 5369,
      "ĠRiver": 5370,
      "Ġemerged": 5371,
      "aa": 5372,
      "Ġfrag": 5373,
      "ĠJournal": 5374,
      "Ġprofound": 5375,
      "Ġdatab": 5376,
      "Ġwinter": 5377,
      "Ġsequence": 5378,
      "ĠTest": 5379,
      "othe": 5380,
      "Ġconservation": 5381,
      "Ġwait": 5382,
      "Ġreferred": 5383,
      "Ġhospital": 5384,
      "Ġpy": 5385,
      "ĠWestern": 5386,
      "Ġcomputers": 5387,
      "Ġlayers": 5388,
      "Ġdialogue": 5389,
      "nership": 5390,
      "active": 5391,
      "Ġdesired": 5392,
      "Ġdiscussing": 5393,
      "Ġtransportation": 5394,
      "gypt": 5395,
      "Ġsudden": 5396,
      "total": 5397,
      "ĠTogether": 5398,
      "ĠCity": 5399,
      "ĠMark": 5400,
      "Ġphone": 5401,
      "ĠConst": 5402,
      "Ġdynamic": 5403,
      "ĠGreek": 5404,
      "æľ": 5405,
      "ĠTime": 5406,
      "Ġadvice": 5407,
      "Ġspeaking": 5408,
      "å®": 5409,
      "Ġlib": 5410,
      "emy": 5411,
      "Ġunits": 5412,
      "Ġprepare": 5413,
      "Ġtruth": 5414,
      "Ġgrand": 5415,
      "poses": 5416,
      "plicated": 5417,
      "ĠDepartment": 5418,
      "Ġcovered": 5419,
      "Ġsustainability": 5420,
      "Ġencounter": 5421,
      "ĠProgram": 5422,
      "AG": 5423,
      "Col": 5424,
      "ca": 5425,
      "ĠMarch": 5426,
      "Ġthereby": 5427,
      "Ġpracticing": 5428,
      "Ġgrid": 5429,
      "color": 5430,
      "Ġdemonstrate": 5431,
      "Ġsector": 5432,
      "\"))": 5433,
      "Of": 5434,
      "faces": 5435,
      "Ġtrib": 5436,
      "era": 5437,
      "Ġyield": 5438,
      "Ġforget": 5439,
      "irt": 5440,
      "anted": 5441,
      "Ġsyndrome": 5442,
      "Ġparty": 5443,
      "Ġeveryday": 5444,
      "Ġcorpor": 5445,
      "Ġgoods": 5446,
      "Ġcomplexity": 5447,
      "Ġfinally": 5448,
      "Ġnu": 5449,
      "aming": 5450,
      "ĠWhe": 5451,
      "Ġdiscipl": 5452,
      "Ġshel": 5453,
      "Ġcurrently": 5454,
      "Ġerror": 5455,
      "ĠStudents": 5456,
      "ultaneously": 5457,
      "cel": 5458,
      "isation": 5459,
      "Ġinherent": 5460,
      "ĠSy": 5461,
      "Ġasking": 5462,
      "ĠFood": 5463,
      "Ġlistening": 5464,
      "Some": 5465,
      "jo": 5466,
      "Ġcere": 5467,
      "Ġwall": 5468,
      "iling": 5469,
      "ocation": 5470,
      "Ġoffered": 5471,
      "Ġdriving": 5472,
      "Ġmotion": 5473,
      "Ġreson": 5474,
      "Ġinvent": 5475,
      "Ġcurric": 5476,
      "III": 5477,
      "Ġhearing": 5478,
      "ĠMiddle": 5479,
      "ĠChurch": 5480,
      "Ġcraft": 5481,
      "Ġexercises": 5482,
      "Ġwalking": 5483,
      "och": 5484,
      "ĠOct": 5485,
      "ĠOff": 5486,
      "Ġnutrients": 5487,
      "cal": 5488,
      "Ġiron": 5489,
      "ĠApr": 5490,
      "Ġcurious": 5491,
      "Ġcarried": 5492,
      "Ġtemperatures": 5493,
      "Ġvitamin": 5494,
      "ĠAustralia": 5495,
      "Ġwrote": 5496,
      "icians": 5497,
      "lean": 5498,
      "Ġthick": 5499,
      "ibl": 5500,
      "Ġmanip": 5501,
      "oyal": 5502,
      "anguage": 5503,
      "random": 5504,
      "Ġstarts": 5505,
      "RI": 5506,
      "ses": 5507,
      "Ġsem": 5508,
      "Ġmission": 5509,
      "ste": 5510,
      "Ġyouth": 5511,
      "orthern": 5512,
      "Ġabuse": 5513,
      "Ġrural": 5514,
      "Ġinflamm": 5515,
      "Ġsubjects": 5516,
      "Ġsentence": 5517,
      "ulum": 5518,
      "Ġvs": 5519,
      "fulness": 5520,
      "Ġoffic": 5521,
      "param": 5522,
      "ĠReal": 5523,
      "Ġrelease": 5524,
      "Ġhabits": 5525,
      "CT": 5526,
      "cular": 5527,
      "Ġban": 5528,
      "omb": 5529,
      "ĠCreat": 5530,
      "ĠMc": 5531,
      "Ġwear": 5532,
      "ĠBar": 5533,
      "Ġchosen": 5534,
      "Ġconfidence": 5535,
      "ä¸Ģ": 5536,
      "Ġdescribe": 5537,
      "Ġconsidering": 5538,
      "mark": 5539,
      "etry": 5540,
      "ĠBel": 5541,
      "enses": 5542,
      "ĠExamples": 5543,
      "Ġcycle": 5544,
      "Ġcopy": 5545,
      "alle": 5546,
      "ĠSee": 5547,
      "iest": 5548,
      "Ġrealm": 5549,
      "Ġorganic": 5550,
      "Ġign": 5551,
      "Ġther": 5552,
      "leg": 5553,
      "Ġalcohol": 5554,
      "Ġconflicts": 5555,
      "ixt": 5556,
      "ĠBen": 5557,
      "ovember": 5558,
      "ĠKey": 5559,
      "Ġenthus": 5560,
      "Ġtreated": 5561,
      "Ġelectrical": 5562,
      "Ġimprovement": 5563,
      "Ġpsychological": 5564,
      "Ġsurvival": 5565,
      "No": 5566,
      "ifies": 5567,
      "Ġhealing": 5568,
      "ĠMor": 5569,
      "Ġrig": 5570,
      "Ġhumanity": 5571,
      "Ġpreserving": 5572,
      "requ": 5573,
      "ollow": 5574,
      "ĠEgypt": 5575,
      "Ġking": 5576,
      "Ġemissions": 5577,
      "Ġpret": 5578,
      "exts": 5579,
      "Ġoccup": 5580,
      "Ġpregnancy": 5581,
      "ras": 5582,
      "äº": 5583,
      "Ġbone": 5584,
      "Ġmit": 5585,
      "ĠUK": 5586,
      "Ġdiscovery": 5587,
      "Ġoperating": 5588,
      "Ġmoves": 5589,
      "Ġconsistent": 5590,
      "Ġcalculate": 5591,
      "Ġfarmers": 5592,
      "aturally": 5593,
      "cest": 5594,
      "ãĢ": 5595,
      "ĠJune": 5596,
      "ifications": 5597,
      "prene": 5598,
      "Ġsymbols": 5599,
      "ĠCenter": 5600,
      "Ġcommitment": 5601,
      "Ġstruggle": 5602,
      "mary": 5603,
      "Ġ--": 5604,
      "reprene": 5605,
      "Ġinequ": 5606,
      "ĠAng": 5607,
      "ĠCor": 5608,
      "Ġpolitics": 5609,
      "ION": 5610,
      "aign": 5611,
      "flow": 5612,
      "ĠGet": 5613,
      "Ġperce": 5614,
      "Ġintervention": 5615,
      "tenance": 5616,
      "Ġtechnical": 5617,
      "Ġsaying": 5618,
      "Ġnorms": 5619,
      "Ġregularly": 5620,
      "Ġdoctors": 5621,
      "mitted": 5622,
      "Ġadvancements": 5623,
      "XX": 5624,
      "omy": 5625,
      "pping": 5626,
      "ĠMean": 5627,
      "rick": 5628,
      "ĠUnion": 5629,
      "Ġ2012": 5630,
      "Ġshowc": 5631,
      "Ġpossibilities": 5632,
      "ĠCommon": 5633,
      "Ġmillions": 5634,
      "ersonal": 5635,
      "Ġcredit": 5636,
      "Ġcrisis": 5637,
      "htt": 5638,
      "Ġoral": 5639,
      "Ġotherwise": 5640,
      "Ġtraffic": 5641,
      "Ġplayers": 5642,
      "Ġinspire": 5643,
      "Ġbillion": 5644,
      "Ġfreedom": 5645,
      "orous": 5646,
      "Ġbrand": 5647,
      "Ġstages": 5648,
      "empl": 5649,
      "Ġseven": 5650,
      "izer": 5651,
      "Ġexamination": 5652,
      "Ġformation": 5653,
      "ĠĠĠĠĠĠĠĠĠĠĠĠĠĠĠĠĠĠĠĠĠĠĠĠĠĠĠ": 5654,
      "shape": 5655,
      "ĠAmong": 5656,
      "Ġfeedback": 5657,
      "ND": 5658,
      "ĠSub": 5659,
      "Ġship": 5660,
      "Ġdishes": 5661,
      "Ġmagical": 5662,
      "Ġdangerous": 5663,
      "Ġmobile": 5664,
      "edia": 5665,
      "icism": 5666,
      "Ġstyles": 5667,
      "Ġplastic": 5668,
      "ĠAlice": 5669,
      "nums": 5670,
      "Ġaudience": 5671,
      "Ġwaiting": 5672,
      "Ġdri": 5673,
      "ida": 5674,
      "ulf": 5675,
      "ĠIS": 5676,
      "Ġwealth": 5677,
      "ĠFind": 5678,
      "Ġnoticed": 5679,
      "ĠInc": 5680,
      "Ġpurposes": 5681,
      "ĠWork": 5682,
      "Ġmoments": 5683,
      "ĠGerman": 5684,
      "Ġatmosphere": 5685,
      "Res": 5686,
      "Ġremote": 5687,
      "Ġtransition": 5688,
      "Ġindustries": 5689,
      "Ġwidely": 5690,
      "From": 5691,
      "Rec": 5692,
      "ansion": 5693,
      "Ġposit": 5694,
      "ĠRev": 5695,
      "Ġpandemic": 5696,
      "ĠInstitute": 5697,
      "ĠCare": 5698,
      "Ġinterested": 5699,
      "Ġappears": 5700,
      "Ġrecommended": 5701,
      "Ġparameters": 5702,
      "Ġfacilitate": 5703,
      "ä½": 5704,
      "Ġwarn": 5705,
      "eless": 5706,
      "Ġprompt": 5707,
      "Ġcombined": 5708,
      "Ġhighest": 5709,
      "Ġic": 5710,
      "ĠIP": 5711,
      "Ġlearners": 5712,
      "ING": 5713,
      "Ġcommercial": 5714,
      "Ġcoun": 5715,
      "orest": 5716,
      "Ġseed": 5717,
      "ĠLatin": 5718,
      "Ġdecide": 5719,
      "Ġexposed": 5720,
      "Ġartistic": 5721,
      "lin": 5722,
      "telling": 5723,
      "column": 5724,
      "Ġconversation": 5725,
      "ĠGermany": 5726,
      "txt": 5727,
      "orge": 5728,
      "Ġbottom": 5729,
      "Ġinner": 5730,
      "ĠTH": 5731,
      "ament": 5732,
      "ffee": 5733,
      "Ġmeals": 5734,
      "Ġmarkets": 5735,
      "Ġlegisl": 5736,
      "Ġrecognition": 5737,
      "ï¼ļ": 5738,
      "aughter": 5739,
      "holders": 5740,
      "çĶ¨": 5741,
      "float": 5742,
      "wood": 5743,
      "Ġdu": 5744,
      "elif": 5745,
      "ĠFound": 5746,
      "ptember": 5747,
      "Ġemail": 5748,
      "Ġamounts": 5749,
      "Ġdepth": 5750,
      "Ġaffecting": 5751,
      "fortunately": 5752,
      "Ġpreferences": 5753,
      "map": 5754,
      "title": 5755,
      "Ġalph": 5756,
      "Ġ->": 5757,
      "Ġrecovery": 5758,
      "Ġconducted": 5759,
      "ĠCreate": 5760,
      "box": 5761,
      "Ġlifest": 5762,
      "eut": 5763,
      "sub": 5764,
      "urd": 5765,
      "Ġyellow": 5766,
      "Ġminds": 5767,
      "Ġinstructions": 5768,
      "US": 5769,
      "car": 5770,
      "draw": 5771,
      "ford": 5772,
      "write": 5773,
      "åĩ": 5774,
      "roy": 5775,
      "ĠFin": 5776,
      "Ġroof": 5777,
      "(\"\\": 5778,
      "Ġantib": 5779,
      "Ġimplementation": 5780,
      "*-": 5781,
      "see": 5782,
      "Ġintrig": 5783,
      "Ġcoop": 5784,
      "Ġaffects": 5785,
      "Ġrobust": 5786,
      "aul": 5787,
      "Ġtaught": 5788,
      "Ġrul": 5789,
      "....": 5790,
      "Ġidentities": 5791,
      "Ġsubstant": 5792,
      "Ġconventional": 5793,
      "ĠAugust": 5794,
      "DP": 5795,
      "Ġtu": 5796,
      "Ġstone": 5797,
      "Ġselection": 5798,
      "Ġshar": 5799,
      "ĠProt": 5800,
      "ossible": 5801,
      "Ġslightly": 5802,
      "ascular": 5803,
      "Ġenhancing": 5804,
      "Ġarrang": 5805,
      "ĠApplic": 5806,
      "ĠMaybe": 5807,
      "ambda": 5808,
      "Ġhoriz": 5809,
      "Data": 5810,
      "They": 5811,
      "Ġfocuses": 5812,
      "Ġwondered": 5813,
      "Ġextreme": 5814,
      "Ġrapidly": 5815,
      "Ġadvantage": 5816,
      "orrow": 5817,
      "Ġpul": 5818,
      "Ġfr": 5819,
      "arity": 5820,
      "step": 5821,
      "ĠTur": 5822,
      "ĠMic": 5823,
      "Ġdisp": 5824,
      "ĠThom": 5825,
      "obal": 5826,
      "ĠAnother": 5827,
      "Ġathlet": 5828,
      "Ġinsect": 5829,
      "acles": 5830,
      "Ġrat": 5831,
      "Ġrain": 5832,
      "Ġauthent": 5833,
      "Ġselected": 5834,
      ".'": 5835,
      "Ġfirm": 5836,
      "asy": 5837,
      "Ġstake": 5838,
      "Ġreserv": 5839,
      "Ġoffice": 5840,
      ")))": 5841,
      "Ġbrings": 5842,
      "Ġcandid": 5843,
      "ĠSte": 5844,
      "Ġsalt": 5845,
      "Name": 5846,
      "lor": 5847,
      "pet": 5848,
      "rum": 5849,
      "war": 5850,
      "Ġrom": 5851,
      "Ġfort": 5852,
      "oga": 5853,
      "Ġhyper": 5854,
      "first": 5855,
      "Ñı": 5856,
      "å¤": 5857,
      "Ġlose": 5858,
      "ĠDem": 5859,
      "Ġresolution": 5860,
      "ĠGreen": 5861,
      "ĠUN": 5862,
      "ĠAsia": 5863,
      "Ġparticles": 5864,
      "Ġencount": 5865,
      "Ġargument": 5866,
      "icate": 5867,
      "Ġnotable": 5868,
      "Ġshowing": 5869,
      "ipping": 5870,
      "Ġexecut": 5871,
      "Ġexcellent": 5872,
      "aus": 5873,
      "ship": 5874,
      "zy": 5875,
      "æĪ": 5876,
      "ene": 5877,
      "ulin": 5878,
      "ĠDav": 5879,
      "Ġhelpful": 5880,
      "Ġserving": 5881,
      "Ġstem": 5882,
      "Ġusage": 5883,
      "Ġarts": 5884,
      "ressed": 5885,
      "Ġamb": 5886,
      "ventions": 5887,
      "Ġafford": 5888,
      "Ġsuccessfully": 5889,
      "Ġanalyzing": 5890,
      "Ġhttp": 5891,
      "range": 5892,
      "Ġson": 5893,
      "Ġcert": 5894,
      "Ġstorm": 5895,
      "Ġrelatively": 5896,
      "Ġdetermined": 5897,
      "Ġcraf": 5898,
      "Ġfrequency": 5899,
      "Ġinjuries": 5900,
      "]]": 5901,
      "Ġod": 5902,
      "Ġdie": 5903,
      "Ġhorm": 5904,
      "ĠPark": 5905,
      "Ġwhenever": 5906,
      "ondon": 5907,
      "Ġcharacterized": 5908,
      "Ġwindow": 5909,
      "Ġconcentr": 5910,
      "Ġintellectual": 5911,
      "NS": 5912,
      "ycl": 5913,
      "Ġsouth": 5914,
      "Ġthorough": 5915,
      "iled": 5916,
      "ĠBob": 5917,
      "ĠBudd": 5918,
      "Ġneut": 5919,
      "ĠHuman": 5920,
      "Ġrequiring": 5921,
      "Ġsolving": 5922,
      "Ġfacilities": 5923,
      "ĠConn": 5924,
      "Ġhousehold": 5925,
      "Ġremarkable": 5926,
      "ĠLake": 5927,
      "Ġoverl": 5928,
      "Ġconnecting": 5929,
      "Ġhandle": 5930,
      "Ġopening": 5931,
      "ĠStudies": 5932,
      "Ġtouch": 5933,
      "Ġgirls": 5934,
      "Lesson": 5935,
      "iverse": 5936,
      "Ġvert": 5937,
      "ĠBecause": 5938,
      "Ġadequ": 5939,
      "Ġ-*-": 5940,
      "ĠIndigenous": 5941,
      "ĠIsland": 5942,
      "Ġteams": 5943,
      "Ġcomponent": 5944,
      "Ġanswers": 5945,
      "Ġmonitor": 5946,
      "Ġmanufacture": 5947,
      "Ġadvantages": 5948,
      "normal": 5949,
      "Ð´": 5950,
      "Ġsought": 5951,
      "Ġwet": 5952,
      "roph": 5953,
      "Ġ23": 5954,
      "Ġvolume": 5955,
      "Ġbattle": 5956,
      "Ġpreviously": 5957,
      "inner": 5958,
      "Ġpip": 5959,
      "Ġbank": 5960,
      "Ġconvey": 5961,
      "Ġgene": 5962,
      "Ġdelicious": 5963,
      "Ġprotecting": 5964,
      "Ġinteraction": 5965,
      "itudes": 5966,
      "Ġproteins": 5967,
      "My": 5968,
      "Next": 5969,
      "stream": 5970,
      "ĠLeg": 5971,
      "ools": 5972,
      "coming": 5973,
      "Ġcontributions": 5974,
      "Ġintroduce": 5975,
      "ĠPresident": 5976,
      "æĺ¯": 5977,
      "ìĿ": 5978,
      "Ġeight": 5979,
      "ĠElect": 5980,
      "Ġdish": 5981,
      "Ġracial": 5982,
      "Ġflat": 5983,
      "tee": 5984,
      "Ġsett": 5985,
      "Ġentertain": 5986,
      "Ġexplored": 5987,
      "ĠMedic": 5988,
      "ĠSecond": 5989,
      "Ġalgorithm": 5990,
      "ĠWilliam": 5991,
      "ĠApril": 5992,
      "ham": 5993,
      "ml": 5994,
      "imens": 5995,
      "Ġ27": 5996,
      "ĠNon": 5997,
      "ĠExper": 5998,
      "Ġdrive": 5999,
      "Ġparticipate": 6000,
      "Ġappearance": 6001,
      "IL": 6002,
      "None": 6003,
      "bles": 6004,
      "Ġcart": 6005,
      "aint": 6006,
      "apers": 6007,
      "Ġ\"))": 6008,
      "Ġsole": 6009,
      "Ġreference": 6010,
      "Ġcars": 6011,
      "ĠĠĠĠĠĠĠĠĠĠĠĠĠĠĠĠĠĠĠĠĠĠĠĠĠĠĠĠĠĠĠĠ": 6012,
      "Ġsensitive": 6013,
      "oxide": 6014,
      "Ġframework": 6015,
      "Ġcomfortable": 6016,
      "Ġpowers": 6017,
      "ĠReturn": 6018,
      "uis": 6019,
      "eding": 6020,
      "estion": 6021,
      "ĠLike": 6022,
      "Ġaccompl": 6023,
      "Many": 6024,
      "ĠDirect": 6025,
      "Ġpartnership": 6026,
      "Ġcountless": 6027,
      "Ġarguments": 6028,
      "Ġextremely": 6029,
      "Ġagricultural": 6030,
      "Ġpollution": 6031,
      "Ġmoist": 6032,
      "Ġwants": 6033,
      "enth": 6034,
      "Ġnurs": 6035,
      "ĠHIV": 6036,
      "ĠNovember": 6037,
      "Ġassistance": 6038,
      "Ġedge": 6039,
      "Ġemotion": 6040,
      "Ġtells": 6041,
      "Ġnuclear": 6042,
      "$$": 6043,
      "csv": 6044,
      "Ġq": 6045,
      "Ġment": 6046,
      "Ġmaintenance": 6047,
      "Ġlocations": 6048,
      "Ġ2011": 6049,
      "Ġboost": 6050,
      "Ġcapture": 6051,
      "Ġnavigating": 6052,
      "ĠJewish": 6053,
      "OD": 6054,
      "PS": 6055,
      "iot": 6056,
      "Ġmiles": 6057,
      "Ġintended": 6058,
      "ĠDiff": 6059,
      "Ġspend": 6060,
      "Ġphr": 6061,
      "Ġdiscussed": 6062,
      "Ġthreats": 6063,
      "Ġcampaign": 6064,
      "Ġsweet": 6065,
      "body": 6066,
      "free": 6067,
      "tes": 6068,
      "ya": 6069,
      "ĠCong": 6070,
      "Ġriver": 6071,
      "ĠRoman": 6072,
      "Ġinsert": 6073,
      "Ġsimultaneously": 6074,
      "Ġmainly": 6075,
      "check": 6076,
      "Ġeggs": 6077,
      "ogy": 6078,
      "Ġhaz": 6079,
      "Ġexplo": 6080,
      "Ġpresc": 6081,
      "Ġleader": 6082,
      "Ġemployed": 6083,
      "Ġfluid": 6084,
      "Ġcaptivating": 6085,
      "Ġevaluate": 6086,
      "Ġstick": 6087,
      "ĠEv": 6088,
      "Ġkinds": 6089,
      "ĠEmp": 6090,
      "Ġflowers": 6091,
      "ĠStudy": 6092,
      "ĠSociety": 6093,
      "mas": 6094,
      "Ġgun": 6095,
      "ĠFinally": 6096,
      "Ġfeels": 6097,
      "âĢĿ,": 6098,
      "ĠConsequently": 6099,
      "Ġunders": 6100,
      "Ġlandscapes": 6101,
      "35": 6102,
      "whel": 6103,
      "Ġcoding": 6104,
      "Ġformer": 6105,
      "ĠCour": 6106,
      "Ġasp": 6107,
      "ĠDNA": 6108,
      "Ġresist": 6109,
      "Ġfeat": 6110,
      "ĠVis": 6111,
      "False": 6112,
      "Ġrely": 6113,
      "Ġdemands": 6114,
      "Ġemployees": 6115,
      "Ġadopt": 6116,
      "Ġexpertise": 6117,
      "ĠFranc": 6118,
      "oad": 6119,
      "ald": 6120,
      "Ġmort": 6121,
      "olit": 6122,
      "Ġancest": 6123,
      "asty": 6124,
      "arent": 6125,
      "Ġarm": 6126,
      "ditional": 6127,
      "Ġperformed": 6128,
      "Ġmanufacturing": 6129,
      "Ġliquid": 6130,
      "hist": 6131,
      "Ġsamples": 6132,
      "Ġaccident": 6133,
      "Ġdied": 6134,
      "compass": 6135,
      "Ġmovie": 6136,
      "Ġsubstance": 6137,
      "Ġwidth": 6138,
      "Ġdocuments": 6139,
      "Ġapart": 6140,
      "Ġdogs": 6141,
      "Ġvictim": 6142,
      "Ġdiscrimination": 6143,
      "Read": 6144,
      "Your": 6145,
      "ĠTreat": 6146,
      "Ġ26": 6147,
      "object": 6148,
      "Ġinstruction": 6149,
      "Ġtransc": 6150,
      "Ġrequest": 6151,
      "That": 6152,
      "Ġturns": 6153,
      "Ġfiles": 6154,
      "Ġmajority": 6155,
      "Ġfabric": 6156,
      "pact": 6157,
      "itors": 6158,
      "ums": 6159,
      "Ġimpl": 6160,
      "Ġraised": 6161,
      "Ġsimpl": 6162,
      "Ġpover": 6163,
      "Cont": 6164,
      "Ġnorth": 6165,
      "Ġnaturally": 6166,
      "ĠSan": 6167,
      "Ġdoor": 6168,
      "arsh": 6169,
      "Ġrepresenting": 6170,
      "Ġconcerning": 6171,
      "Ġbreathing": 6172,
      "points": 6173,
      "Ġbarriers": 6174,
      "=[": 6175,
      "OT": 6176,
      "Pre": 6177,
      "ĠTre": 6178,
      "Ġrecon": 6179,
      "Ġacts": 6180,
      "ĠKnow": 6181,
      "Ġ['": 6182,
      "Ġpatience": 6183,
      "Ġmoved": 6184,
      "Ġindicate": 6185,
      "Ġentirely": 6186,
      "26": 6187,
      "ait": 6188,
      "des": 6189,
      "Ġpray": 6190,
      "ĠAD": 6191,
      "emp": 6192,
      "Ġvess": 6193,
      "blem": 6194,
      "Ġartificial": 6195,
      "Ġhappening": 6196,
      "ographical": 6197,
      "Ġholds": 6198,
      "Ġscene": 6199,
      "Ġabsorb": 6200,
      "Ġpark": 6201,
      "Ġplease": 6202,
      "Ġpuzz": 6203,
      "Ġreb": 6204,
      "Ġupper": 6205,
      "Ġexists": 6206,
      "opt": 6207,
      "Ġchain": 6208,
      "ĠForm": 6209,
      "Ġinstances": 6210,
      "Ġsurgery": 6211,
      "Ġmatch": 6212,
      "valu": 6213,
      "Ġmarked": 6214,
      "Ġprevention": 6215,
      "Ġexistence": 6216,
      "Ġradio": 6217,
      "Ġexpressions": 6218,
      "Ġinfections": 6219,
      "dec": 6220,
      "ĠÃ": 6221,
      "erals": 6222,
      "items": 6223,
      "Ġchurch": 6224,
      "ĠStr": 6225,
      "Ġpositions": 6226,
      "Ġ194": 6227,
      "Ġattend": 6228,
      "Ġreduction": 6229,
      "Ġconsideration": 6230,
      "Ġtales": 6231,
      "Ġprocedures": 6232,
      "Ġpoverty": 6233,
      "zer": 6234,
      "Ñĩ": 6235,
      "Ġcards": 6236,
      "ari": 6237,
      "icy": 6238,
      "Ġreached": 6239,
      "Ġgently": 6240,
      "erent": 6241,
      "Ġuns": 6242,
      "Ġbutter": 6243,
      "Ġsyn": 6244,
      "Ġconsists": 6245,
      "Ġdefault": 6246,
      "Ġentry": 6247,
      "lessly": 6248,
      "ĠQue": 6249,
      "Ġdegrees": 6250,
      "Ġâ": 6251,
      "Ġsides": 6252,
      "eterm": 6253,
      "urg": 6254,
      "Ġgave": 6255,
      "ĠMem": 6256,
      "ĠFree": 6257,
      "weight": 6258,
      "Ġengaged": 6259,
      "Ġcontributing": 6260,
      "Ġloop": 6261,
      "Ġconsumers": 6262,
      "ĠSeptember": 6263,
      "Ġdemonstrated": 6264,
      "ashington": 6265,
      "entle": 6266,
      "ifier": 6267,
      "ĠLondon": 6268,
      "ologist": 6269,
      "exp": 6270,
      "Ġflood": 6271,
      "Ġminimize": 6272,
      "Ġwildlife": 6273,
      "Ġvehicle": 6274,
      "Ġsell": 6275,
      "Ġple": 6276,
      "Ġdealing": 6277,
      "avirus": 6278,
      "Ġthanks": 6279,
      "Ġsupported": 6280,
      "Ġfunctional": 6281,
      "numbers": 6282,
      "Ġimplementing": 6283,
      "Ġcompetition": 6284,
      "PA": 6285,
      "friend": 6286,
      "Ġcatch": 6287,
      "ĠĠĠĠĠĠ": 6288,
      "Ġstands": 6289,
      "Ġjoy": 6290,
      "Ġclim": 6291,
      "berg": 6292,
      "venile": 6293,
      ");": 6294,
      "cur": 6295,
      "lig": 6296,
      "learn": 6297,
      "igue": 6298,
      "Ġcomplicated": 6299,
      "ĠUlt": 6300,
      "Ġreports": 6301,
      "Ġincorporate": 6302,
      "ĠCentral": 6303,
      "onomy": 6304,
      "Ġtherm": 6305,
      "OS": 6306,
      "Ñĭ": 6307,
      "Ġeast": 6308,
      "Ġstored": 6309,
      "Ġchrom": 6310,
      "Ġmeal": 6311,
      "Ġimmun": 6312,
      "Ġbeneficial": 6313,
      "29": 6314,
      "but": 6315,
      "Ġpages": 6316,
      "ocra": 6317,
      "Ġfocusing": 6318,
      "Ġfilter": 6319,
      "36": 6320,
      "~~": 6321,
      "Ġtheore": 6322,
      "Ġadap": 6323,
      "Ġcontexts": 6324,
      "Ġteen": 6325,
      "Ġwriters": 6326,
      "Ġproviders": 6327,
      "Ġ80": 6328,
      "Ġrecognized": 6329,
      "Ġencouraging": 6330,
      "Ġmedications": 6331,
      "Ġfloor": 6332,
      "Ġdiagnosis": 6333,
      "Ġgod": 6334,
      "ĠCurrent": 6335,
      "Ġvoc": 6336,
      "Ġ28": 6337,
      "Ġcomposition": 6338,
      "Ġapplying": 6339,
      "Ġaccounts": 6340,
      "Ġblocks": 6341,
      "sequent": 6342,
      "Ġvolunte": 6343,
      "Ġwitness": 6344,
      "Ġë": 6345,
      "Ġcash": 6346,
      "Ġdictionary": 6347,
      "Ġunl": 6348,
      "lower": 6349,
      "Ġ195": 6350,
      "Ġseeing": 6351,
      "ĠArch": 6352,
      "Ġargue": 6353,
      "Ġmoral": 6354,
      "Ġsick": 6355,
      "Ġfine": 6356,
      "Ġreform": 6357,
      "ĠCoun": 6358,
      "ague": 6359,
      "ĠChildren": 6360,
      "Ġinitially": 6361,
      "ĠPhys": 6362,
      "ãĤ": 6363,
      "Ġfoss": 6364,
      "lements": 6365,
      "Ġstars": 6366,
      "ifest": 6367,
      "ĠBet": 6368,
      "Ġdisapp": 6369,
      "Ġsky": 6370,
      "ashion": 6371,
      "Ġinspiration": 6372,
      "Ġethnic": 6373,
      "Ġcardi": 6374,
      "Ġuncertain": 6375,
      "Ġcontrolled": 6376,
      ".\")": 6377,
      "dule": 6378,
      "neys": 6379,
      "oviet": 6380,
      "Ġdepict": 6381,
      "Ġprogramming": 6382,
      "Ġregardless": 6383,
      "Ġcyber": 6384,
      "Ġdomestic": 6385,
      "Ġalgorithms": 6386,
      "Ġvulnerable": 6387,
      "EL": 6388,
      "IM": 6389,
      "oir": 6390,
      "ĠBas": 6391,
      "Ġflour": 6392,
      "Ġpoly": 6393,
      "Ġhandling": 6394,
      "ĠGoogle": 6395,
      "34": 6396,
      "Be": 6397,
      "bt": 6398,
      "ville": 6399,
      "rays": 6400,
      "ĠYOU": 6401,
      "Ġgenerated": 6402,
      "Ġexperiencing": 6403,
      "ĠScot": 6404,
      "Ġqualities": 6405,
      "Ġcolonial": 6406,
      "Ġproposed": 6407,
      "Despite": 6408,
      "rant": 6409,
      "è¡": 6410,
      "Ġ@": 6411,
      "Ġdro": 6412,
      "Ġbeings": 6413,
      "ĠBible": 6414,
      "Ġjump": 6415,
      "arness": 6416,
      "Ġinclusive": 6417,
      "Ġtranspare": 6418,
      "Ġdifferently": 6419,
      "Ġeducators": 6420,
      "Ġsupports": 6421,
      "Ġreleased": 6422,
      "show": 6423,
      "Ġcontinuous": 6424,
      "ĠGeneral": 6425,
      "ĠJuly": 6426,
      "Ġmitig": 6427,
      "rete": 6428,
      "stood": 6429,
      "ĠSaf": 6430,
      "ĠPublic": 6431,
      "ĠEth": 6432,
      "pty": 6433,
      "Ġjoint": 6434,
      "Ġwhereas": 6435,
      "Ġforming": 6436,
      "Ġbright": 6437,
      "Ġturning": 6438,
      "Ġshaped": 6439,
      "Ġcustomer": 6440,
      "Ġchemicals": 6441,
      "Ġarchitecture": 6442,
      "ĠMuslim": 6443,
      "fil": 6444,
      "mic": 6445,
      "uh": 6446,
      "Ġhour": 6447,
      "ĠPal": 6448,
      "ĠEconom": 6449,
      "ĠLa": 6450,
      "Ġ22": 6451,
      "ĠNet": 6452,
      "Ġkill": 6453,
      "Ġinterview": 6454,
      "Ġarticles": 6455,
      "ounced": 6456,
      "Ġmotor": 6457,
      "Ġclaims": 6458,
      "According": 6459,
      "Remember": 6460,
      "Ġtut": 6461,
      "atter": 6462,
      "ĠST": 6463,
      "Ġintroduction": 6464,
      "astly": 6465,
      "Ġoverwhel": 6466,
      "Ġcoffee": 6467,
      "utional": 6468,
      "Ġpreserve": 6469,
      "Ġcoron": 6470,
      "Ġdrink": 6471,
      "Ġseemingly": 6472,
      "Ġslowly": 6473,
      "Ġnovels": 6474,
      "Ġcrops": 6475,
      "Ġobstacles": 6476,
      "log": 6477,
      "Ġsend": 6478,
      "Ġos": 6479,
      "arant": 6480,
      "Ġclients": 6481,
      "Ġgrown": 6482,
      "ĠProv": 6483,
      "Ġhappiness": 6484,
      "Ġmanaged": 6485,
      "Ġcelebrate": 6486,
      "semb": 6487,
      "Ġtack": 6488,
      "usiness": 6489,
      "ĠMet": 6490,
      "Ġinterventions": 6491,
      "Ġphase": 6492,
      "Ġflavor": 6493,
      "ĠProject": 6494,
      "Ġreduces": 6495,
      "Ġspecialized": 6496,
      "Ġextraord": 6497,
      "Ġmixed": 6498,
      "Ġtrauma": 6499,
      "long": 6500,
      "osite": 6501,
      "ĠWomen": 6502,
      "uals": 6503,
      "Ġentreprene": 6504,
      "Ġgrab": 6505,
      "Ġradiation": 6506,
      "Ġremaining": 6507,
      "Ġmutual": 6508,
      "bru": 6509,
      "gal": 6510,
      "ka": 6511,
      "ĠAtt": 6512,
      "acies": 6513,
      "ĠBefore": 6514,
      "osa": 6515,
      "ĠFact": 6516,
      "ĠGood": 6517,
      "rency": 6518,
      "Ġcapabilities": 6519,
      "ĠIsra": 6520,
      "Ġstorytelling": 6521,
      "ushing": 6522,
      "hyth": 6523,
      "ĠExploring": 6524,
      "Throughout": 6525,
      "ĠJanuary": 6526,
      "Ġdataset": 6527,
      "eff": 6528,
      "Ġtum": 6529,
      "Ġdental": 6530,
      "Ġintent": 6531,
      "Ġmemories": 6532,
      "ployment": 6533,
      "Ġthin": 6534,
      "iratory": 6535,
      "Ġunw": 6536,
      "Ġbegins": 6537,
      "Ġmachines": 6538,
      "MS": 6539,
      "Ġcos": 6540,
      "Ġwaves": 6541,
      "Ġfest": 6542,
      "road": 6543,
      "ĠDel": 6544,
      "Ġpharm": 6545,
      "Ġsurfaces": 6546,
      "Ġsales": 6547,
      "ĠRussia": 6548,
      "Ġsessions": 6549,
      "Ġacknowled": 6550,
      "Ġwalls": 6551,
      "Ġband": 6552,
      "edge": 6553,
      "Ġmood": 6554,
      "Ġforced": 6555,
      "ĠSch": 6556,
      "ĠFrance": 6557,
      "Ġtea": 6558,
      "ĠStand": 6559,
      "Ġages": 6560,
      "Ġviews": 6561,
      "Ġnegot": 6562,
      "Ġengineers": 6563,
      "Ġmassive": 6564,
      "Ġheavily": 6565,
      "Ġbonds": 6566,
      "ĠPractice": 6567,
      "28": 6568,
      "table": 6569,
      "edy": 6570,
      "ĠAcc": 6571,
      "unning": 6572,
      "ĠLG": 6573,
      "ĠNum": 6574,
      "Ġallerg": 6575,
      "Ġdesigning": 6576,
      "trans": 6577,
      "Ġcurriculum": 6578,
      "ato": 6579,
      "Ġ('": 6580,
      "ĠMac": 6581,
      "ĠPost": 6582,
      "ĠEffect": 6583,
      "Ġnoted": 6584,
      "Ġrepresented": 6585,
      "Ġrecognizing": 6586,
      "Ġbird": 6587,
      "Ġmarketing": 6588,
      "Ġlifestyle": 6589,
      "Ġ...": 6590,
      "Ġped": 6591,
      "lets": 6592,
      "lete": 6593,
      "istan": 6594,
      "Ġorient": 6595,
      "Ġsubsequent": 6596,
      "Ġ90": 6597,
      "Ġfunds": 6598,
      "Ġaudiences": 6599,
      "Ġscenarios": 6600,
      "Ġtailored": 6601,
      "label": 6602,
      "Ġtall": 6603,
      "Ġtitle": 6604,
      "Ġinhab": 6605,
      "ĠSl": 6606,
      "Ġcompare": 6607,
      "Ġmyster": 6608,
      "Ġseemed": 6609,
      "ĠBritain": 6610,
      "BC": 6611,
      "kes": 6612,
      "Ġtried": 6613,
      "Ġstack": 6614,
      "Ġspring": 6615,
      "Ġagree": 6616,
      "Ġbiological": 6617,
      "Ġsuffering": 6618,
      "ĠModern": 6619,
      "card": 6620,
      "fill": 6621,
      "å°": 6622,
      "height": 6623,
      "hedule": 6624,
      "igital": 6625,
      "ulatory": 6626,
      "ĠBuilding": 6627,
      "Ġencompass": 6628,
      "ĠWrite": 6629,
      "Ġcomprom": 6630,
      "Ġtele": 6631,
      "ressing": 6632,
      "Ġzone": 6633,
      "which": 6634,
      "Ġsufficient": 6635,
      "ĠAbout": 6636,
      "ocratic": 6637,
      "ĠOctober": 6638,
      "78": 6639,
      "Ġast": 6640,
      "Ġdoll": 6641,
      "ĠTwo": 6642,
      "Ġstret": 6643,
      "ache": 6644,
      "unk": 6645,
      "Ġschem": 6646,
      "Ġ45": 6647,
      "Ġcourses": 6648,
      "Ġdetermination": 6649,
      "Ġarrived": 6650,
      "Ġidentifying": 6651,
      "ÃŃ": 6652,
      "Ġtit": 6653,
      "Ġdy": 6654,
      "rot": 6655,
      "ĠRem": 6656,
      "Ġdepends": 6657,
      "ĠPlus": 6658,
      "Ġsteel": 6659,
      "Can": 6660,
      "EC": 6661,
      "Re": 6662,
      "]))": 6663,
      "asters": 6664,
      "Ġkitc": 6665,
      "Ġpartner": 6666,
      "Ġremained": 6667,
      "Ġproducing": 6668,
      "Ġformal": 6669,
      "Ġgrass": 6670,
      "Ġevaluation": 6671,
      "Ġvehicles": 6672,
      "bruary": 6673,
      "lers": 6674,
      "rict": 6675,
      "Ġshed": 6676,
      "ĠSum": 6677,
      "ĠPers": 6678,
      "Ġrough": 6679,
      "Ġresidents": 6680,
      "Ġclothing": 6681,
      "Ġsys": 6682,
      "Ġaccel": 6683,
      "Ġfunding": 6684,
      "Ġtransformation": 6685,
      "Ġstaying": 6686,
      "Ġvideos": 6687,
      "ĠHistorical": 6688,
      "Ġreaction": 6689,
      "Ġefficiently": 6690,
      "Ġvaccine": 6691,
      "Ġexcessive": 6692,
      "ĠAssociation": 6693,
      "rus": 6694,
      "hered": 6695,
      "Ġbrief": 6696,
      "ĠSoviet": 6697,
      "oples": 6698,
      "ĠOld": 6699,
      "Ġreliable": 6700,
      "Ġnumer": 6701,
      "Ġinfluences": 6702,
      "Ġerrors": 6703,
      "Ġclosed": 6704,
      "Ġminimum": 6705,
      "Ġinstruments": 6706,
      "connected": 6707,
      "bran": 6708,
      "rat": 6709,
      "rets": 6710,
      "user": 6711,
      "ander": 6712,
      "ĠWashington": 6713,
      "Ġpolice": 6714,
      "Ġcream": 6715,
      "Ġcharge": 6716,
      "ĠImport": 6717,
      "Ġelectronic": 6718,
      "Ġsteam": 6719,
      "Ġwaters": 6720,
      "Ġbudget": 6721,
      "Ġpretty": 6722,
      "38": 6723,
      "lib": 6724,
      "Ġcup": 6725,
      "Ġfederal": 6726,
      "ruption": 6727,
      "Ġscript": 6728,
      "Ġnoise": 6729,
      "Ġartist": 6730,
      "Ġpractition": 6731,
      "Ġelev": 6732,
      "Ġcontributes": 6733,
      "Ġworksh": 6734,
      "Ġcustoms": 6735,
      "Ġvoices": 6736,
      "Ġcategories": 6737,
      "27": 6738,
      "cons": 6739,
      "rants": 6740,
      "arrow": 6741,
      "Ġdance": 6742,
      "usr": 6743,
      "ĠHy": 6744,
      "Ġdisrupt": 6745,
      "Ġremoved": 6746,
      "ĠWhite": 6747,
      "Ġauthority": 6748,
      "Ġsuggested": 6749,
      "Ġextraordinary": 6750,
      "[\"": 6751,
      "è¯": 6752,
      "rob": 6753,
      "Ġnic": 6754,
      "iform": 6755,
      "Ġstrict": 6756,
      "Ġcorner": 6757,
      "values": 6758,
      "ĠColle": 6759,
      "Ġcleaning": 6760,
      "Ġwatching": 6761,
      "Ġprocedure": 6762,
      "iological": 6763,
      "ĠMont": 6764,
      "Ġweap": 6765,
      "Ġran": 6766,
      "output": 6767,
      "Ġappoint": 6768,
      "Ġovercome": 6769,
      "Ġrelative": 6770,
      "Ġkept": 6771,
      "Ġcompleted": 6772,
      "Ġactively": 6773,
      "Ġorganized": 6774,
      "Ġparticipation": 6775,
      "Ġemergency": 6776,
      "Ġaims": 6777,
      "Ġlabels": 6778,
      "Ġmagic": 6779,
      "[-": 6780,
      "Ġsignals": 6781,
      "Ġfatigue": 6782,
      "model": 6783,
      "Ġtow": 6784,
      "ĠSym": 6785,
      "ĠNative": 6786,
      "espread": 6787,
      "Ġaccessible": 6788,
      "Ġlatest": 6789,
      "eutic": 6790,
      "gent": 6791,
      "net": 6792,
      "sis": 6793,
      "Ġtheories": 6794,
      "Ġgrew": 6795,
      "ĠSchol": 6796,
      "Ġfriendly": 6797,
      "Ġfewer": 6798,
      "Ġachieving": 6799,
      "Ġsubstances": 6800,
      "Ġdebates": 6801,
      "Ġagreed": 6802,
      "Ġdouble": 6803,
      "Ġdefinition": 6804,
      "Activity": 6805,
      "Ġinflammation": 6806,
      "Frame": 6807,
      "icking": 6808,
      "imer": 6809,
      "quare": 6810,
      "ĠMax": 6811,
      "Ġadm": 6812,
      "inding": 6813,
      "Ġunity": 6814,
      "Ġ2010": 6815,
      "Ġtreating": 6816,
      "Ġphilosophy": 6817,
      "hi": 6818,
      "Ġpair": 6819,
      "Ġfib": 6820,
      "Ġreven": 6821,
      "ulary": 6822,
      "ĠArab": 6823,
      "ĠCivil": 6824,
      "anda": 6825,
      "ortion": 6826,
      "Ġreturned": 6827,
      "Ġinsurance": 6828,
      "Ġsecondary": 6829,
      "Ġannual": 6830,
      "Ġpreparing": 6831,
      "Count": 6832,
      "uous": 6833,
      "Ġwave": 6834,
      "isp": 6835,
      "ĠTry": 6836,
      "ĠMal": 6837,
      "ĠHouse": 6838,
      "Ġdispar": 6839,
      "close": 6840,
      "ĠVol": 6841,
      "Ġsettle": 6842,
      "Ġminerals": 6843,
      "Ġlimits": 6844,
      "Ġdifficulties": 6845,
      "Ġalternatives": 6846,
      "Ġmorning": 6847,
      "Ġmissing": 6848,
      "Ġhabitat": 6849,
      "Ġestimated": 6850,
      "aud": 6851,
      "iated": 6852,
      "lar": 6853,
      "lights": 6854,
      "atial": 6855,
      "Ġpd": 6856,
      "Ġbread": 6857,
      "Ġtoys": 6858,
      "ctu": 6859,
      "ĠAS": 6860,
      "ĠJames": 6861,
      "Ġprem": 6862,
      "Ġhundreds": 6863,
      "call": 6864,
      "Ġske": 6865,
      "Ġlingu": 6866,
      "mented": 6867,
      "Ġuniverse": 6868,
      "Ġrelief": 6869,
      "Ġmostly": 6870,
      "Ġdistingu": 6871,
      "Ġholding": 6872,
      "ĠPhil": 6873,
      "Ġfighting": 6874,
      "amiliar": 6875,
      "Ġneighborhood": 6876,
      "Go": 6877,
      "vance": 6878,
      "Ġwish": 6879,
      "ishes": 6880,
      "agram": 6881,
      "Ġpeak": 6882,
      "Ġdevelopments": 6883,
      "Ġexpansion": 6884,
      "Ġstanding": 6885,
      "Ġcrim": 6886,
      "ĠCommission": 6887,
      "Ġobservations": 6888,
      "Ġmerely": 6889,
      "ĠFrancis": 6890,
      "band": 6891,
      "ii": 6892,
      "å¯": 6893,
      "itivity": 6894,
      "Ġdf": 6895,
      "omic": 6896,
      "ĠYear": 6897,
      "Ġgrapp": 6898,
      "Ġrealize": 6899,
      "Ġcritically": 6900,
      "Ġimmediate": 6901,
      "ĠWhether": 6902,
      "Ġtomat": 6903,
      "eling": 6904,
      "ultural": 6905,
      "Ġarms": 6906,
      "Ġflavors": 6907,
      "Ġentities": 6908,
      "Ġ2000": 6909,
      "Ġpresentation": 6910,
      "Ġmarine": 6911,
      "Ġyounger": 6912,
      "Ġroutine": 6913,
      "otherapy": 6914,
      "upp": 6915,
      "Ġwire": 6916,
      "ĠIN": 6917,
      "ĠMich": 6918,
      "ĠPsych": 6919,
      "ĠĠĠĠĠĠĠĠĠĠĠĠĊ": 6920,
      "ierarch": 6921,
      "Ġemployment": 6922,
      "elihood": 6923,
      "ĠLGBT": 6924,
      "75": 6925,
      "CE": 6926,
      "function": 6927,
      "gl": 6928,
      "ÑĮ": 6929,
      "Ġtip": 6930,
      "Ġnor": 6931,
      "amily": 6932,
      "atever": 6933,
      "ĠLanguage": 6934,
      "Ġmanner": 6935,
      "Ġtransmission": 6936,
      "Ġcalls": 6937,
      "Ġmemor": 6938,
      "Ġperforming": 6939,
      "Ġlinear": 6940,
      "Ġwidespread": 6941,
      "Ġnarrative": 6942,
      "Ġintegrating": 6943,
      "Ġforests": 6944,
      "Ġcouple": 6945,
      "ptions": 6946,
      "ĠUt": 6947,
      "ĠAsian": 6948,
      "Ġextended": 6949,
      "Ġvector": 6950,
      "Ġinterpretation": 6951,
      "Ġdivided": 6952,
      "Ġdatabase": 6953,
      "01": 6954,
      "Ġsad": 6955,
      "Ġlens": 6956,
      "Ġplate": 6957,
      "clus": 6958,
      "Ġarise": 6959,
      "phone": 6960,
      "Ġwouldn": 6961,
      "Ġcomplexities": 6962,
      "Ġgraphic": 6963,
      "Ġtoxic": 6964,
      "Ġinequality": 6965,
      ".\"\"\"": 6966,
      "oral": 6967,
      "Ġlun": 6968,
      "olf": 6969,
      "unc": 6970,
      "Ġinstant": 6971,
      "Ġsurvey": 6972,
      "azon": 6973,
      "Ġobjective": 6974,
      "Ġrepeated": 6975,
      "erb": 6976,
      "ittle": 6977,
      "roke": 6978,
      "Ġstock": 6979,
      "ĠDiv": 6980,
      "Ġadds": 6981,
      "Ġgenes": 6982,
      "Ġgluc": 6983,
      "ĠConclusion": 6984,
      "ĠInteg": 6985,
      "Ġmathematical": 6986,
      "AGE": 6987,
      "Em": 6988,
      "yroid": 6989,
      "Ġtun": 6990,
      "ĠTV": 6991,
      "ĠTw": 6992,
      "Ġisland": 6993,
      "Ġforg": 6994,
      "abulary": 6995,
      "ĠEst": 6996,
      "ĠLord": 6997,
      "Ġflag": 6998,
      "Ġreflection": 6999,
      "Ġcenters": 7000,
      "Ġconfident": 7001,
      "ĠColl": 7002,
      "Ġderived": 7003,
      "Ġsupplies": 7004,
      "predict": 7005,
      "ĠCourt": 7006,
      "ĠUltimately": 7007,
      "?**": 7008,
      "Do": 7009,
      "Ġgly": 7010,
      "oto": 7011,
      "ĠCap": 7012,
      "ĠFort": 7013,
      "Ġimper": 7014,
      "ieties": 7015,
      "Ġattacks": 7016,
      "Ġobjectives": 7017,
      "Ġstructural": 7018,
      "Ġzero": 7019,
      "Ġachieved": 7020,
      "onomic": 7021,
      "Ġembrace": 7022,
      "Ġpreparation": 7023,
      "Ġstakeholders": 7024,
      "eath": 7025,
      "ĠĠĊ": 7026,
      "ora": 7027,
      "Ġproport": 7028,
      "that": 7029,
      "ocking": 7030,
      "Ġshot": 7031,
      "ĠIns": 7032,
      "Ġmedication": 7033,
      "Ġoperate": 7034,
      "break": 7035,
      "Ġillustrate": 7036,
      "Ġharvest": 7037,
      "ĠCouncil": 7038,
      "gra": 7039,
      "ugg": 7040,
      "inn": 7041,
      "Ġsan": 7042,
      "Ġwine": 7043,
      "Ġreward": 7044,
      "ĠRich": 7045,
      "Ġsocio": 7046,
      "ommod": 7047,
      "ĠChristianity": 7048,
      "Ġconcentration": 7049,
      "ĠGovernment": 7050,
      "Ġfeaturing": 7051,
      "ao": 7052,
      "Ġmuseum": 7053,
      "ĠĠĠĠčĊ": 7054,
      "Ġvac": 7055,
      "throp": 7056,
      "ĠProp": 7057,
      "Ġranging": 7058,
      "Ġsched": 7059,
      "Ġcolour": 7060,
      "199": 7061,
      "ĠEngine": 7062,
      "ocracy": 7063,
      "'))": 7064,
      "fra": 7065,
      "inst": 7066,
      "Ġsen": 7067,
      "Ġbrown": 7068,
      "Ġdent": 7069,
      "Ġeld": 7070,
      "ĠTake": 7071,
      "otypes": 7072,
      "ĠMag": 7073,
      "ĠĠĠĠĠĠĠĠĠ": 7074,
      "Ġimpossible": 7075,
      "Ġdesire": 7076,
      "Ġextent": 7077,
      "ymph": 7078,
      "Ġstrategic": 7079,
      "Ġexcit": 7080,
      "cules": 7081,
      "Ġcommitted": 7082,
      "Ġdestroy": 7083,
      "Ġcomprehension": 7084,
      "ixture": 7085,
      "mid": 7086,
      "Ġaest": 7087,
      "Ġsurn": 7088,
      "Ġproceed": 7089,
      "using": 7090,
      "ĠEM": 7091,
      "ĠDoes": 7092,
      "ĠLiter": 7093,
      "Ġbutton": 7094,
      "insert": 7095,
      "aze": 7096,
      "Ġmetab": 7097,
      "Ġstruggles": 7098,
      "Ġreactions": 7099,
      "Ġauthentic": 7100,
      "ĠCollege": 7101,
      "ns": 7102,
      "wing": 7103,
      "Ġplenty": 7104,
      "ishment": 7105,
      "ĠExp": 7106,
      "Ġworksheets": 7107,
      "Ġprotected": 7108,
      "Ġcircle": 7109,
      "Ġevolved": 7110,
      "Ġinstrument": 7111,
      "Pr": 7112,
      "Understanding": 7113,
      "mun": 7114,
      "zil": 7115,
      "Ġsed": 7116,
      "Ġpreval": 7117,
      "Ġpartners": 7118,
      "puter": 7119,
      "Ġvisible": 7120,
      "forward": 7121,
      "Ġ2007": 7122,
      "ĠShare": 7123,
      "iodiversity": 7124,
      "author": 7125,
      "Ġpreventing": 7126,
      "Ġphotos": 7127,
      "Ġrows": 7128,
      "Ġadventures": 7129,
      "Ġecosystems": 7130,
      "During": 7131,
      "Te": 7132,
      "Ùİ": 7133,
      "Ġfashion": 7134,
      "umes": 7135,
      "acific": 7136,
      "ĠStat": 7137,
      "Ġregulation": 7138,
      "ceptions": 7139,
      "Ġcriteria": 7140,
      "Ġ70": 7141,
      "Ġkindness": 7142,
      "Ġrestaur": 7143,
      "Ġchoosing": 7144,
      "Ġharmony": 7145,
      "åŃĹ": 7146,
      "ĠEnvironmental": 7147,
      "`,": 7148,
      "åº": 7149,
      "ette": 7150,
      "cember": 7151,
      "agraph": 7152,
      "ĠMount": 7153,
      "ĠPort": 7154,
      "Ġrice": 7155,
      "aker": 7156,
      "Ġagencies": 7157,
      "Ġclassic": 7158,
      "Ġauthorities": 7159,
      "ĠRepublic": 7160,
      "Val": 7161,
      "ĠDown": 7162,
      "Ġinterconnected": 7163,
      "Ġpresents": 7164,
      "Ġcontrols": 7165,
      "ĠÐ²": 7166,
      "Ġinvestigation": 7167,
      "Ġopinions": 7168,
      "64": 7169,
      "ht": 7170,
      "onents": 7171,
      "erator": 7172,
      "Ġsizes": 7173,
      "Ġbot": 7174,
      "ĠCur": 7175,
      "illa": 7176,
      "Ġspending": 7177,
      "Ġunderstood": 7178,
      "Ġreader": 7179,
      "Ġcontainer": 7180,
      "Ġholid": 7181,
      "Ġwebsites": 7182,
      "DA": 7183,
      "DC": 7184,
      "Se": 7185,
      "nel": 7186,
      "erge": 7187,
      "stract": 7188,
      "Ġhurt": 7189,
      "Ġthread": 7190,
      "Ġnodes": 7191,
      "ete": 7192,
      "ĠLook": 7193,
      "Ġobvious": 7194,
      "Ġmyst": 7195,
      "Ġkeeps": 7196,
      "Ġexcited": 7197,
      "Ġpressing": 7198,
      "Ġprivacy": 7199,
      "39": 7200,
      "ini": 7201,
      "Ġastr": 7202,
      "ona": 7203,
      "etics": 7204,
      "Ġstores": 7205,
      "Ġconven": 7206,
      "ador": 7207,
      "ĠMove": 7208,
      "Ġoutdo": 7209,
      "Ġ',": 7210,
      "ĠChall": 7211,
      "Ġtypical": 7212,
      "Ġliteracy": 7213,
      "Ġorigin": 7214,
      "Ġgradually": 7215,
      "join": 7216,
      "Ġoutcome": 7217,
      "Ġparalle": 7218,
      "Ġequality": 7219,
      "Ġbackgrounds": 7220,
      "Ġsorted": 7221,
      "Ġvarying": 7222,
      "ĠWorksheets": 7223,
      "Ġadequate": 7224,
      "!\")": 7225,
      ")-": 7226,
      "CS": 7227,
      "found": 7228,
      "lst": 7229,
      "rogen": 7230,
      "ĠMain": 7231,
      "Ġexplains": 7232,
      "Ġdecor": 7233,
      "Ġdeli": 7234,
      "Ġcomputing": 7235,
      "Ġcorrectly": 7236,
      "Ġlimitations": 7237,
      "Ġdecrease": 7238,
      "Ġsusp": 7239,
      "Ġtrials": 7240,
      "Ġdrawn": 7241,
      "Ġexcitement": 7242,
      "500": 7243,
      "sm": 7244,
      "Ġtables": 7245,
      "Ġmac": 7246,
      "Ġharness": 7247,
      "ĠSun": 7248,
      "ago": 7249,
      "Ġchick": 7250,
      "ĠDist": 7251,
      "ecess": 7252,
      "Ġpoetry": 7253,
      "Ġpassing": 7254,
      "Ġpainting": 7255,
      "Ġtrip": 7256,
      "Ġsoldiers": 7257,
      "gin": 7258,
      "ctic": 7259,
      "ctors": 7260,
      "igs": 7261,
      "ĠCS": 7262,
      "Ġalt": 7263,
      "Ġalter": 7264,
      "ĠPaul": 7265,
      "ava": 7266,
      "ĠYet": 7267,
      "Ġexperiments": 7268,
      "Ġrepair": 7269,
      "Ġchildhood": 7270,
      "Ġimmers": 7271,
      "Ġsmoking": 7272,
      "matrix": 7273,
      "Ġhousing": 7274,
      "`.": 7275,
      "born": 7276,
      "cor": 7277,
      "la": 7278,
      "math": 7279,
      "eness": 7280,
      "Ġtom": 7281,
      "Ġconvert": 7282,
      "ĠRober": 7283,
      "Ġdisput": 7284,
      "Ġprime": 7285,
      "Ġ2009": 7286,
      "spec": 7287,
      "Ġsuffer": 7288,
      "Ġrevealed": 7289,
      "ĠLGBTQ": 7290,
      "DF": 7291,
      "New": 7292,
      "ĉĊ": 7293,
      "rog": 7294,
      "Ġstuff": 7295,
      "Ġconclud": 7296,
      "ĠMult": 7297,
      "ighter": 7298,
      "Ġagency": 7299,
      "ropical": 7300,
      "ĠAnalysis": 7301,
      "Ġbreaking": 7302,
      "Ġelectron": 7303,
      "scale": 7304,
      "ĠControl": 7305,
      "Ġdimensions": 7306,
      "Ġhospit": 7307,
      "Ġsurprise": 7308,
      "Ġphenomenon": 7309,
      "Sub": 7310,
      "inning": 7311,
      "erative": 7312,
      "Ġreject": 7313,
      "Ġreput": 7314,
      "Ġintention": 7315,
      "ĠNode": 7316,
      "Ġtheme": 7317,
      "Ġmode": 7318,
      "ĠScott": 7319,
      "Ġobserve": 7320,
      "ĠTechnology": 7321,
      "van": 7322,
      "Ġtact": 7323,
      "aria": 7324,
      "ician": 7325,
      "ĠSolution": 7326,
      "ady": 7327,
      "emia": 7328,
      "osph": 7329,
      "Ġspark": 7330,
      "ĠUnder": 7331,
      "Ġarc": 7332,
      "Ġagents": 7333,
      "Ġgenu": 7334,
      "Ġconsumer": 7335,
      "ĠTrust": 7336,
      "Ġcolumns": 7337,
      "Ġindependence": 7338,
      "Ġbabies": 7339,
      "ĠScotland": 7340,
      "amins": 7341,
      "Ġwheel": 7342,
      "ĠComple": 7343,
      "Ġintriguing": 7344,
      "Ġsubstantial": 7345,
      "Ġkitchen": 7346,
      "Ġdelivery": 7347,
      "CA": 7348,
      "Ġsnow": 7349,
      "Ġpaid": 7350,
      "Ġlinks": 7351,
      "Ġstere": 7352,
      "open": 7353,
      "quit": 7354,
      "quality": 7355,
      "ĠFollow": 7356,
      "Ġcultivate": 7357,
      "Ġmining": 7358,
      "Ġbridge": 7359,
      "Ġwriter": 7360,
      "Ġequipped": 7361,
      "Ġcertainly": 7362,
      "Ġmovies": 7363,
      "Ġintegration": 7364,
      "Ġtargeted": 7365,
      "Ġabsol": 7366,
      "Ġpsychology": 7367,
      "Ġtherapeutic": 7368,
      "Ġadministr": 7369,
      "Ġfantastic": 7370,
      "Ġpractitioners": 7371,
      "ala": 7372,
      "ading": 7373,
      "ĠBre": 7374,
      "ĠLibr": 7375,
      "Ġkeys": 7376,
      "working": 7377,
      "Ġvisited": 7378,
      "Ġbalanced": 7379,
      "Ġagreement": 7380,
      "ĠFebruary": 7381,
      "Ġfixed": 7382,
      "choice": 7383,
      "Ġcorresponding": 7384,
      "Ġtrouble": 7385,
      "frame": 7386,
      "zym": 7387,
      "heast": 7388,
      "Ġfract": 7389,
      "arter": 7390,
      "Ġdut": 7391,
      "Ġnerve": 7392,
      "ĠCase": 7393,
      "umin": 7394,
      "Ġdiss": 7395,
      "ĠThose": 7396,
      "Ġcloud": 7397,
      "Ġeffectiveness": 7398,
      "Ġpromise": 7399,
      "Ġprominent": 7400,
      "Ġprofit": 7401,
      "Ġfilms": 7402,
      "Ġreceiving": 7403,
      "Ġdebate": 7404,
      "Ġevolving": 7405,
      "Ġangle": 7406,
      "Ġconstantly": 7407,
      "Ġmolecules": 7408,
      "cast": 7409,
      "Ġsplit": 7410,
      "iture": 7411,
      "alian": 7412,
      "anes": 7413,
      "Ġreaching": 7414,
      "Ġstable": 7415,
      "adian": 7416,
      "agues": 7417,
      "ogical": 7418,
      "uality": 7419,
      "Ġdoors": 7420,
      "Ġmanifest": 7421,
      "Ġhighlights": 7422,
      "Ġcentered": 7423,
      "raints": 7424,
      "Ġcontrovers": 7425,
      "Ġbeneath": 7426,
      "Ġmusical": 7427,
      "ĠSpace": 7428,
      "Ġlasting": 7429,
      "Ġaccordingly": 7430,
      "Ġhighlighting": 7431,
      "Ġvillage": 7432,
      "Ġcast": 7433,
      "Ġmast": 7434,
      "ĠCath": 7435,
      "Ġpeoples": 7436,
      "Ġquiet": 7437,
      "Ġ35": 7438,
      "Ġrespiratory": 7439,
      "Ġlarg": 7440,
      "Ġgreatest": 7441,
      "ĠProcess": 7442,
      "ĠImpact": 7443,
      "Ġcrime": 7444,
      "Ġsummary": 7445,
      "Ġgeomet": 7446,
      "Ġathletes": 7447,
      "Ġtheoretical": 7448,
      "Over": 7449,
      "ked": 7450,
      "mates": 7451,
      "Ġsin": 7452,
      "ota": 7453,
      "resent": 7454,
      "Ġaccommod": 7455,
      "Ġrail": 7456,
      "Ġfolk": 7457,
      "Ġdescribes": 7458,
      "[:,": 7459,
      "âłĦâłĦâłĦâłĦ": 7460,
      "Ġshifts": 7461,
      "Ġpositively": 7462,
      "ĠStrateg": 7463,
      "37": 7464,
      "Ġcrow": 7465,
      "Ġindu": 7466,
      "ione": 7467,
      "rooms": 7468,
      "otes": 7469,
      "ĠMuseum": 7470,
      "Ġintersection": 7471,
      "Ġinclus": 7472,
      "Ġherself": 7473,
      "ĠReview": 7474,
      "Ġlegacy": 7475,
      "Ġinteger": 7476,
      "Ġinspiring": 7477,
      "ĠMedical": 7478,
      "Ġlibraries": 7479,
      "ĠEastern": 7480,
      "Ġmigration": 7481,
      "ocolate": 7482,
      "HO": 7483,
      "ĠÑģ": 7484,
      "Ġtension": 7485,
      "Ġmas": 7486,
      "Ġdiving": 7487,
      "Ġseam": 7488,
      "ĠRights": 7489,
      "valid": 7490,
      "Ġcombat": 7491,
      "Ġseconds": 7492,
      "Ġrobot": 7493,
      "Ġcoronavirus": 7494,
      "chers": 7495,
      "æī": 7496,
      "è¾": 7497,
      "Ġcher": 7498,
      "Ġfalse": 7499,
      "Ġstreet": 7500,
      "irth": 7501,
      "ĠPub": 7502,
      "Ġrhyth": 7503,
      "Ġdelves": 7504,
      "Ġ2005": 7505,
      "Ġsupplement": 7506,
      "oken": 7507,
      "Ġadopted": 7508,
      "Ġenthusi": 7509,
      "Comm": 7510,
      "Mod": 7511,
      "iop": 7512,
      "ĠAge": 7513,
      "iral": 7514,
      "ĠPacific": 7515,
      "actions": 7516,
      "Ġstudied": 7517,
      "lick": 7518,
      "Ġphysics": 7519,
      "Ġswim": 7520,
      "Ġdetailed": 7521,
      "Ġdreams": 7522,
      "ket": 7523,
      "urse": 7524,
      "Ġstation": 7525,
      "Ġbear": 7526,
      "ĠMary": 7527,
      "ĠGroup": 7528,
      "Ġcombining": 7529,
      "Ġ//": 7530,
      "Ġinnovations": 7531,
      "Ġcolorful": 7532,
      "Ġteachings": 7533,
      "copy": 7534,
      "ĠDavid": 7535,
      "indu": 7536,
      "onial": 7537,
      "Ġshares": 7538,
      "ipher": 7539,
      "Ġ2008": 7540,
      "ĠÐ¿": 7541,
      "Ġrecorded": 7542,
      "Ġbringing": 7543,
      "Ġoccurred": 7544,
      "Ġsatisf": 7545,
      "ä¸Ģä¸ª": 7546,
      "Ġlargely": 7547,
      "File": 7548,
      "hav": 7549,
      "éĩ": 7550,
      "eras": 7551,
      "ita": 7552,
      "Ġpython": 7553,
      "Ġfont": 7554,
      "Ġgentle": 7555,
      "Ġsport": 7556,
      "ustain": 7557,
      "Ġkil": 7558,
      "Ġstrange": 7559,
      "Ġassets": 7560,
      "Ġattitudes": 7561,
      "Ġexpensive": 7562,
      "Ġformula": 7563,
      "Ġlegs": 7564,
      "Ġdominant": 7565,
      "Ġportion": 7566,
      "Ġsections": 7567,
      "ĠGlobal": 7568,
      "CP": 7569,
      "fig": 7570,
      "anation": 7571,
      "Ġble": 7572,
      "asive": 7573,
      "ĠWild": 7574,
      "assert": 7575,
      "ĠJose": 7576,
      "Ġindeed": 7577,
      "Ġequally": 7578,
      "Ġfaces": 7579,
      "Ġoccasion": 7580,
      "Ġprotective": 7581,
      "Ġorigins": 7582,
      "Ġputting": 7583,
      "Ġfossil": 7584,
      "IG": 7585,
      "pack": 7586,
      "á¹": 7587,
      "Ġes": 7588,
      "orph": 7589,
      "Ġgre": 7590,
      "ession": 7591,
      "ĠNature": 7592,
      "ostic": 7593,
      "Ġtrained": 7594,
      "Input": 7595,
      "Ġowners": 7596,
      "ĠAtl": 7597,
      "Ġcircuit": 7598,
      "Ġwonderful": 7599,
      "https": 7600,
      "TER": 7601,
      "Ġfer": 7602,
      "Ġmaps": 7603,
      "Ġgall": 7604,
      "Ġwhom": 7605,
      "ĠPan": 7606,
      "Ġabund": 7607,
      "Ġguard": 7608,
      "Ġenhanced": 7609,
      "Ġimplemented": 7610,
      "Ġappeared": 7611,
      "App": 7612,
      "Dr": 7613,
      "iat": 7614,
      "Ġaqu": 7615,
      "organ": 7616,
      "struct": 7617,
      "Ġshoot": 7618,
      "elled": 7619,
      "Ġtwice": 7620,
      "Ġbrother": 7621,
      "eterans": 7622,
      "Ġgirl": 7623,
      "AB": 7624,
      "such": 7625,
      "Ġcater": 7626,
      "Ġdil": 7627,
      "ĠBusiness": 7628,
      "ĠJud": 7629,
      "egu": 7630,
      "Ġshell": 7631,
      "Ġequitable": 7632,
      "Ġgovernance": 7633,
      "what": 7634,
      "Ġvariations": 7635,
      "ĠAmazon": 7636,
      "Ġimagination": 7637,
      "ĠRegular": 7638,
      "Ġrecipes": 7639,
      "Ġobtained": 7640,
      "ĠCheck": 7641,
      "Or": 7642,
      "han": 7643,
      "Ġtube": 7644,
      "real": 7645,
      "Ġcaught": 7646,
      "Ġdensity": 7647,
      "Ġgap": 7648,
      "Ġgram": 7649,
      "otion": 7650,
      "umps": 7651,
      "Ġunus": 7652,
      "Ġaccum": 7653,
      "axis": 7654,
      "Ġglobe": 7655,
      "Ġpaint": 7656,
      "rieved": 7657,
      "Ġmistakes": 7658,
      "Ġcounsel": 7659,
      "sq": 7660,
      "var": 7661,
      "ampl": 7662,
      "ĠIde": 7663,
      "osion": 7664,
      "ĠInformation": 7665,
      "Ġinspect": 7666,
      "Ġdepart": 7667,
      "Ġanalys": 7668,
      "Ġdifficulty": 7669,
      "Ġhouses": 7670,
      "friendly": 7671,
      "+=": 7672,
      "Gen": 7673,
      "Most": 7674,
      "oric": 7675,
      "Ġinject": 7676,
      "Ġnit": 7677,
      "owers": 7678,
      "Ġempty": 7679,
      "Ġhealthier": 7680,
      "Ġpersonality": 7681,
      "Ġadvances": 7682,
      "Ġmarriage": 7683,
      "Med": 7684,
      "TP": 7685,
      "},": 7686,
      "Ġmys": 7687,
      "Ġlights": 7688,
      "Ġnest": 7689,
      "ĠTex": 7690,
      "ĠMethod": 7691,
      "Ġends": 7692,
      "anting": 7693,
      "ĠDise": 7694,
      "Ġcompelling": 7695,
      "Ġkilled": 7696,
      "reated": 7697,
      "Ġunless": 7698,
      "Ġclub": 7699,
      "Ġrecycl": 7700,
      "oval": 7701,
      "Ġampl": 7702,
      "Ġmodule": 7703,
      "Ġdetection": 7704,
      "Ġvisiting": 7705,
      "Ġsafely": 7706,
      "ĠEmbra": 7707,
      "Ġmicrob": 7708,
      "Ġsolely": 7709,
      "Ġpond": 7710,
      "keys": 7711,
      "claim": 7712,
      "Ġclust": 7713,
      "ĠChoose": 7714,
      "cores": 7715,
      "Ġrelevance": 7716,
      "Ġnecessit": 7717,
      "Ġpopularity": 7718,
      "Although": 7719,
      "Ġintegrity": 7720,
      "Ġfarming": 7721,
      "ĠHighlands": 7722,
      "Ġadministration": 7723,
      "ĠValue": 7724,
      "Ġphenomena": 7725,
      "Ġmotivation": 7726,
      "ML": 7727,
      "rated": 7728,
      "Ġcats": 7729,
      "Ġforth": 7730,
      "ĠPo": 7731,
      "Ġchances": 7732,
      "ĠInit": 7733,
      "Ġ')": 7734,
      "Ġdisturb": 7735,
      "ĠScient": 7736,
      "Ġcombine": 7737,
      "ĠEnergy": 7738,
      "Ġavailability": 7739,
      "Ġcollections": 7740,
      "Ġexpanding": 7741,
      "Ġcategory": 7742,
      "forcement": 7743,
      "ĠService": 7744,
      "Ġchannels": 7745,
      "health": 7746,
      "Ġpiv": 7747,
      "Ġnurt": 7748,
      "ĠTem": 7749,
      "ĠIr": 7750,
      "ĠBal": 7751,
      "Ġneural": 7752,
      "Ġunknown": 7753,
      "Ġguarant": 7754,
      "Ġequity": 7755,
      "Ġopened": 7756,
      "Ġcalm": 7757,
      "Ġbasics": 7758,
      "hemical": 7759,
      "faction": 7760,
      "Ġthrive": 7761,
      "ĠMexico": 7762,
      "ĠMeanwhile": 7763,
      "field": 7764,
      "greg": 7765,
      "temp": 7766,
      "Ġtf": 7767,
      "ola": 7768,
      "ĠMiss": 7769,
      "ĠEc": 7770,
      "ĠEss": 7771,
      "Ġworse": 7772,
      "Ġ29": 7773,
      "Ġappeal": 7774,
      "Ġfunctioning": 7775,
      "Ġ2006": 7776,
      "Ġruns": 7777,
      "Ġmountain": 7778,
      "#!": 7779,
      "gans": 7780,
      "last": 7781,
      "vity": 7782,
      "well": 7783,
      "Ġov": 7784,
      "Ġhus": 7785,
      "Ġrit": 7786,
      "ĠHome": 7787,
      "Ġcompr": 7788,
      "eren": 7789,
      "Ġunable": 7790,
      "ondition": 7791,
      "Ġgenre": 7792,
      "Ġsurve": 7793,
      "Ġcontributed": 7794,
      "Ġmeasuring": 7795,
      "Ġcollected": 7796,
      "Ġnervous": 7797,
      "ĠBrazil": 7798,
      "uisine": 7799,
      "gers": 7800,
      "hero": 7801,
      "itamin": 7802,
      "roc": 7803,
      "ĠSign": 7804,
      "empts": 7805,
      "teries": 7806,
      "ĠPop": 7807,
      "ĠResp": 7808,
      "Ġliver": 7809,
      "Ġsmoke": 7810,
      "Ġprecision": 7811,
      "Ġlaun": 7812,
      "Ġconsistently": 7813,
      "Ġdiscoveries": 7814,
      "Ġintegrated": 7815,
      "Ġinstalled": 7816,
      "Ġbehaviour": 7817,
      "Ġinfluenced": 7818,
      "ĠMedicine": 7819,
      "Number": 7820,
      "VI": 7821,
      "itution": 7822,
      "Ġpump": 7823,
      "Ġnarrow": 7824,
      "Ġcond": 7825,
      "ĠMo": 7826,
      "Ġsuc": 7827,
      "Ġwearing": 7828,
      "ĠBank": 7829,
      "ograp": 7830,
      "ĠLine": 7831,
      "ĠJam": 7832,
      "ailing": 7833,
      "Ġexplicit": 7834,
      "Ġcorrel": 7835,
      "Ġgrasp": 7836,
      "Ġdescript": 7837,
      "ĠCommit": 7838,
      "Ġconcerned": 7839,
      "Ġindicates": 7840,
      "Ġscenes": 7841,
      "Ġsurvive": 7842,
      "ĠLearn": 7843,
      "Ġpurchase": 7844,
      "Ġbranch": 7845,
      "Ġculinary": 7846,
      "ãĢĤ": 7847,
      "ĠIsrael": 7848,
      "CH": 7849,
      "dat": 7850,
      "eat": 7851,
      "vol": 7852,
      "ario": 7853,
      "Ġmand": 7854,
      "Ġear": 7855,
      "Ġeager": 7856,
      "ĠCam": 7857,
      "abs": 7858,
      "Ġneur": 7859,
      "----------------------------": 7860,
      "overing": 7861,
      "lishing": 7862,
      "Ġdrinking": 7863,
      "Ġinvolvement": 7864,
      "bing": 7865,
      "target": 7866,
      "Ġtang": 7867,
      "Ġsod": 7868,
      "Ġbones": 7869,
      "Ġnod": 7870,
      "Ġheating": 7871,
      "ĠBi": 7872,
      "Ġrub": 7873,
      "ĠLand": 7874,
      "ĠLong": 7875,
      "ruit": 7876,
      "Ġtraits": 7877,
      "Ġaddiction": 7878,
      "Ġmeasured": 7879,
      "ĠDecember": 7880,
      "Ġdescription": 7881,
      "Ġbigger": 7882,
      "randint": 7883,
      "ĠChristians": 7884,
      "Ġminimizing": 7885,
      "Ġprinciple": 7886,
      "Ġtapest": 7887,
      "Ġvocabulary": 7888,
      "Ġmyself": 7889,
      "RS": 7890,
      "Today": 7891,
      "tu": 7892,
      "hend": 7893,
      "Ġsoph": 7894,
      "ester": 7895,
      "Ġboy": 7896,
      "Ġstead": 7897,
      "Ġintense": 7898,
      "Ġcompounds": 7899,
      "ipal": 7900,
      "hesis": 7901,
      "cipl": 7902,
      "Ġdelight": 7903,
      "Ġessence": 7904,
      "Ġimprovements": 7905,
      "ÐµÐ½": 7906,
      "Ġminimal": 7907,
      "Ġversions": 7908,
      "ĠPrint": 7909,
      "Ġdiagnosed": 7910,
      "Ġstrengths": 7911,
      "Ġcoastal": 7912,
      "Ġuniversal": 7913,
      "Ġcooperation": 7914,
      "Qu": 7915,
      "ĠCB": 7916,
      "ĠNever": 7917,
      "Ġattached": 7918,
      "Ġbiggest": 7919,
      "Ġ1990": 7920,
      "Ġfrequent": 7921,
      "Ġemphasis": 7922,
      "ĠRussian": 7923,
      "Ġrecommendations": 7924,
      "Ġflexibility": 7925,
      "65": 7926,
      "code": 7927,
      "gien": 7928,
      "Ġtale": 7929,
      "itative": 7930,
      "anning": 7931,
      "idity": 7932,
      "Ġcomment": 7933,
      "ĠRob": 7934,
      "Ġadj": 7935,
      "economic": 7936,
      "Ġoutl": 7937,
      "Ġ500": 7938,
      "Ġboys": 7939,
      "Ġaccurately": 7940,
      "night": 7941,
      "Ġfav": 7942,
      "Ġfold": 7943,
      "ĠTer": 7944,
      "ĠAir": 7945,
      "ĠExt": 7946,
      "Ġkm": 7947,
      "Ġperman": 7948,
      "ĠStart": 7949,
      "Ġrefuge": 7950,
      "Ġsubs": 7951,
      "Ġsubt": 7952,
      "worth": 7953,
      "ĠExample": 7954,
      "Ġdamaged": 7955,
      "month": 7956,
      "Ġethics": 7957,
      "Ġfeeding": 7958,
      "plotlib": 7959,
      "Ġweakness": 7960,
      "Ġsongs": 7961,
      "44": 7962,
      "Py": 7963,
      "turtle": 7964,
      "Ġinhib": 7965,
      "Ġmixture": 7966,
      "Ġlists": 7967,
      "Ġlymph": 7968,
      "ĠEarly": 7969,
      "ustom": 7970,
      "Ġclothes": 7971,
      "Ġupdate": 7972,
      "Ġconserv": 7973,
      "ovascular": 7974,
      "Ġworksheet": 7975,
      "Ġdigest": 7976,
      "Ġillum": 7977,
      "Ġcompetitive": 7978,
      "IA": 7979,
      "nes": 7980,
      "rec": 7981,
      "Ġwest": 7982,
      "Ġmeth": 7983,
      "Ġhur": 7984,
      "ĠPAGE": 7985,
      "Ġlemon": 7986,
      "Ġregist": 7987,
      "Ġworlds": 7988,
      "Ġpresident": 7989,
      "Ġpassword": 7990,
      "ĠIslamic": 7991,
      "Ġmarginalized": 7992,
      "ael": 7993,
      "nov": 7994,
      "yt": 7995,
      "åľ": 7996,
      "Ġsau": 7997,
      "Ġbio": 7998,
      "Ġinher": 7999,
      "Ġmm": 8000,
      "Ġnom": 8001,
      "image": 8002,
      "Ġgear": 8003,
      "Ġstre": 8004,
      "ivation": 8005,
      "ĠBig": 8006,
      "acts": 8007,
      "Ġconsent": 8008,
      "Ġacids": 8009,
      "--------------------": 8010,
      "Ġcorn": 8011,
      "Ġfosters": 8012,
      "Ġtargets": 8013,
      "ĠSupp": 8014,
      "Ġjuvenile": 8015,
      "Moreover": 8016,
      "ĠEncourage": 8017,
      "Ġglucose": 8018,
      "oard": 8019,
      "ä¹": 8020,
      "Ġrect": 8021,
      "ĠSal": 8022,
      "ĠCat": 8023,
      "Ġprove": 8024,
      "aining": 8025,
      "ĠEqu": 8026,
      "elfare": 8027,
      "ĠInvest": 8028,
      "nee": 8029,
      "Ġ[\"": 8030,
      "Ġownership": 8031,
      "Ġ2004": 8032,
      "Ġbreaks": 8033,
      "Ġpercentage": 8034,
      "Ġframeworks": 8035,
      "Ġacceptance": 8036,
      "cluding": 8037,
      "ĠCongress": 8038,
      "ĠTexas": 8039,
      "Ġsucceed": 8040,
      "ugh": 8041,
      "Ġaer": 8042,
      "ena": 8043,
      "Ġfle": 8044,
      "ani": 8045,
      "Ġmild": 8046,
      "Ġlas": 8047,
      "ilation": 8048,
      "ĠHand": 8049,
      "pring": 8050,
      "ontal": 8051,
      "ĠUnfortunately": 8052,
      "Ġextensive": 8053,
      "Ġconstraints": 8054,
      "Ġsafegu": 8055,
      "Ġconsume": 8056,
      "reme": 8057,
      "Ġcollaborative": 8058,
      "Ġhonest": 8059,
      "Ġsequences": 8060,
      "rolled": 8061,
      "Ġordinary": 8062,
      "Ġsmoothly": 8063,
      "ĠReading": 8064,
      "Ġreinfor": 8065,
      "31": 8066,
      "OL": 8067,
      "bed": 8068,
      "run": 8069,
      "outs": 8070,
      "icide": 8071,
      "Ġliv": 8072,
      "Ġgro": 8073,
      "Ġperception": 8074,
      "__':": 8075,
      "ĠAdv": 8076,
      "Ġpassage": 8077,
      "Ġmanager": 8078,
      "Ġexpressed": 8079,
      "Ġhonor": 8080,
      "ĠGeorge": 8081,
      "roductive": 8082,
      "ĠTimmy": 8083,
      "Ġsuddenly": 8084,
      "IP": 8085,
      "db": 8086,
      "lambda": 8087,
      "wind": 8088,
      "inction": 8089,
      "istical": 8090,
      "ĠDraw": 8091,
      "Ġpron": 8092,
      "Ġschedule": 8093,
      "ĠViet": 8094,
      "Ġconfig": 8095,
      "ĠAppro": 8096,
      "Ġphotograph": 8097,
      "Ġbatt": 8098,
      "Ġbattery": 8099,
      "Ġvisitors": 8100,
      "================": 8101,
      "ĠSystems": 8102,
      "Ġinclusivity": 8103,
      "Bl": 8104,
      "Since": 8105,
      "onym": 8106,
      "eted": 8107,
      "ĠAND": 8108,
      "ĠLittle": 8109,
      "Ġstrive": 8110,
      "Ġcreations": 8111,
      "Ġgreatly": 8112,
      "Ġtested": 8113,
      "Ġ2003": 8114,
      "theless": 8115,
      "Ġcycl": 8116,
      "Ġversus": 8117,
      "Ġopposite": 8118,
      "Ġmeasurement": 8119,
      "ĠBoard": 8120,
      "Ġscenario": 8121,
      "Ġprospect": 8122,
      "Ġvessels": 8123,
      "Ġcriminal": 8124,
      "drop": 8125,
      "fast": 8126,
      "Ġtro": 8127,
      "Ġcoc": 8128,
      "ulpt": 8129,
      "ĠCrit": 8130,
      "roud": 8131,
      "izers": 8132,
      "inder": 8133,
      "Ġpeers": 8134,
      "Ġtrick": 8135,
      "Ġsecrets": 8136,
      "Ġproductivity": 8137,
      "ĠSea": 8138,
      "Ġecological": 8139,
      "Ġestablishing": 8140,
      "ĠFlor": 8141,
      "Ġutilize": 8142,
      "Ġcomparison": 8143,
      "Ġfertil": 8144,
      "Ġconsciousness": 8145,
      "Ġhunting": 8146,
      "Ġmoisture": 8147,
      "Ã§": 8148,
      "ĠBook": 8149,
      "ĠDigital": 8150,
      "ĠInf": 8151,
      "Ġapps": 8152,
      "plement": 8153,
      "ĠVict": 8154,
      "Ġblank": 8155,
      "Ġ190": 8156,
      "Ġdistances": 8157,
      "Ġorganisms": 8158,
      "Ġpossibly": 8159,
      "Ġphysically": 8160,
      "ĠColor": 8161,
      "Ġprecise": 8162,
      "Ġsunlight": 8163,
      "ĠCommunity": 8164,
      "ĠObject": 8165,
      "Ġentrepreneurs": 8166,
      "Ġinhabit": 8167,
      "Ã³": 8168,
      "ename": 8169,
      "Ġhierarch": 8170,
      "uris": 8171,
      "ĠCub": 8172,
      "ria": 8173,
      "Ġsurge": 8174,
      "Ġdownload": 8175,
      "Ġconfir": 8176,
      "Ġrising": 8177,
      "coord": 8178,
      "bohy": 8179,
      "Ġhistoric": 8180,
      "Ġfishing": 8181,
      "#!/": 8182,
      "?âĢĿ": 8183,
      "Gu": 8184,
      "PR": 8185,
      "Reg": 8186,
      "Ġtur": 8187,
      "rep": 8188,
      "Ġselling": 8189,
      "Ġcourage": 8190,
      "Ġwise": 8191,
      "Ġbrows": 8192,
      "strip": 8193,
      "asures": 8194,
      "Ġgone": 8195,
      "utely": 8196,
      "igma": 8197,
      "ushed": 8198,
      "ĠLou": 8199,
      "Ġadversity": 8200,
      "Ġclick": 8201,
      "Ġscores": 8202,
      "Ġbrid": 8203,
      "Ġfinish": 8204,
      "Ġcalc": 8205,
      "Ġconsiderations": 8206,
      "Ġadaptation": 8207,
      "argv": 8208,
      "Ġmortality": 8209,
      "48": 8210,
      "UR": 8211,
      "itarian": 8212,
      "imental": 8213,
      "ĠSelf": 8214,
      "abil": 8215,
      "Ġvan": 8216,
      "Ġru": 8217,
      "ĠFuture": 8218,
      "riz": 8219,
      "ribe": 8220,
      "Ġinfected": 8221,
      "Ġpossibility": 8222,
      "Ġencouraged": 8223,
      "solving": 8224,
      "Ġflexible": 8225,
      "ĠKorean": 8226,
      "Ġratio": 8227,
      "Please": 8228,
      "tw": 8229,
      "Ġpairs": 8230,
      "Ġfurn": 8231,
      "stone": 8232,
      "Ġyoga": 8233,
      "ĠSection": 8234,
      "Ġorgans": 8235,
      "Ġalive": 8236,
      "ĠPot": 8237,
      "Ġspatial": 8238,
      "Ġdisag": 8239,
      "Ġmeditation": 8240,
      "Ġsheet": 8241,
      "Ġpromising": 8242,
      "ĠAny": 8243,
      "ĠPlay": 8244,
      "Ġselecting": 8245,
      "ĠTechniques": 8246,
      "åħ¥": 8247,
      "Ġsession": 8248,
      "ecessary": 8249,
      "UN": 8250,
      "nut": 8251,
      "sk": 8252,
      "atus": 8253,
      "Ġpil": 8254,
      "Ġgast": 8255,
      "Ġcoal": 8256,
      "ĠExam": 8257,
      "Ġparameter": 8258,
      "ĠInternet": 8259,
      "Ġcolleagues": 8260,
      "Ġcarrying": 8261,
      "ĠFoundation": 8262,
      "ĠThomas": 8263,
      "vision": 8264,
      "ëĭ": 8265,
      "athered": 8266,
      "Ġwife": 8267,
      "Ġbust": 8268,
      "Ġenrich": 8269,
      "ustration": 8270,
      "ĠLim": 8271,
      "Ġ\"__": 8272,
      "ĠOpt": 8273,
      "Ġ'__": 8274,
      "Ġrac": 8275,
      "Ġ300": 8276,
      "Ġblog": 8277,
      "ĠYoung": 8278,
      "Ġchest": 8279,
      "Ġemployee": 8280,
      "ĠContin": 8281,
      "Ġdeaths": 8282,
      "Ġprecious": 8283,
      "Ġlaid": 8284,
      "ĠSupport": 8285,
      "ÑĢÐ°": 8286,
      "'d": 8287,
      "Tra": 8288,
      "UL": 8289,
      "names": 8290,
      "Ġsouthern": 8291,
      "Ġwestern": 8292,
      "ĠBer": 8293,
      "ĠBay": 8294,
      "Ġenzym": 8295,
      "rian": 8296,
      "ubes": 8297,
      "Ġnewly": 8298,
      "Ġsubtle": 8299,
      "cium": 8300,
      "Ġembed": 8301,
      "Ġarchae": 8302,
      "Ġdedication": 8303,
      "Ġvitamins": 8304,
      "Ġgathering": 8305,
      "Ġbranches": 8306,
      "Ġnuanced": 8307,
      "sembly": 8308,
      "De": 8309,
      "mes": 8310,
      "Ġborder": 8311,
      "Ġhun": 8312,
      "Ġcomplications": 8313,
      "ipe": 8314,
      "----------": 8315,
      "Ġdiam": 8316,
      "Ġdepartment": 8317,
      "Ġresulted": 8318,
      "Ġrespective": 8319,
      "Ġgrounds": 8320,
      "Ġaudio": 8321,
      "Ġstruggling": 8322,
      "Ġcomprehend": 8323,
      "Ġperceived": 8324,
      "Get": 8325,
      "Not": 8326,
      "OC": 8327,
      "Per": 8328,
      "Ġpin": 8329,
      "Ġfly": 8330,
      "Ġlosing": 8331,
      "Ġgaps": 8332,
      "ĠID": 8333,
      "ĠNor": 8334,
      "Ġroads": 8335,
      "Ġextend": 8336,
      "Ġanticip": 8337,
      "Ġbroken": 8338,
      "Ġsuperior": 8339,
      "Ġreflecting": 8340,
      "Ġlaunch": 8341,
      "Ġautomatically": 8342,
      "Ġopinion": 8343,
      "Ġrigorous": 8344,
      "Americ": 8345,
      "Don": 8346,
      "\\_": 8347,
      "ĠÎ": 8348,
      "Ġbanks": 8349,
      "Ġnorthern": 8350,
      "Ġgiant": 8351,
      "Ġleaf": 8352,
      "ĠWind": 8353,
      "ĠNatural": 8354,
      "ĠGiven": 8355,
      "Ġwilling": 8356,
      "ailable": 8357,
      "Ġregulatory": 8358,
      "__\":": 8359,
      "Ġmineral": 8360,
      "ports": 8361,
      "Ġresponsibilities": 8362,
      "Ġdomain": 8363,
      "Ġfalls": 8364,
      "breaking": 8365,
      "ĠPolit": 8366,
      "Ġsharp": 8367,
      "ME": 8368,
      "piece": 8369,
      "æ³": 8370,
      "heimer": 8371,
      "Ġpp": 8372,
      "Ġbinary": 8373,
      "utch": 8374,
      "irical": 8375,
      "ĠFace": 8376,
      "eft": 8377,
      "obs": 8378,
      "Ġowner": 8379,
      "Ġequival": 8380,
      "Ġestimate": 8381,
      "Ġsitting": 8382,
      "Ġinvestments": 8383,
      "ä¸Ń": 8384,
      "Ġavoiding": 8385,
      "Ġdependent": 8386,
      "Ġexhibit": 8387,
      "ĠRevolution": 8388,
      "67": 8389,
      "Ab": 8390,
      "green": 8391,
      "pol": 8392,
      "åĬ": 8393,
      "esides": 8394,
      "nds": 8395,
      "Ġmos": 8396,
      "Ġtoy": 8397,
      "Ġreverse": 8398,
      "ĠTom": 8399,
      "Ġchocolate": 8400,
      "ĠWord": 8401,
      "ĠRome": 8402,
      "Ġabstract": 8403,
      "ĠNumber": 8404,
      "Ġscope": 8405,
      "rowing": 8406,
      "ĠEnter": 8407,
      "Ġnormally": 8408,
      "Ġmicros": 8409,
      "Ġsentences": 8410,
      "Ġmechanism": 8411,
      "enny": 8412,
      "Ġemphasizing": 8413,
      "ASA": 8414,
      "ĠSmith": 8415,
      "Ġpregnant": 8416,
      "Time": 8417,
      "otton": 8418,
      "ĠAccess": 8419,
      "ĠCode": 8420,
      "plant": 8421,
      "apse": 8422,
      "ella": 8423,
      "ĠGold": 8424,
      "earchers": 8425,
      "Ġemerge": 8426,
      "ĠItalian": 8427,
      "ementia": 8428,
      "Ġlosses": 8429,
      "Ġpromotes": 8430,
      "Ġgreenhouse": 8431,
      "Ġrestrictions": 8432,
      "Ġunusual": 8433,
      "hu": 8434,
      "Ġcran": 8435,
      "uted": 8436,
      "ĠCy": 8437,
      "Ġlean": 8438,
      "ensor": 8439,
      "Ġtwist": 8440,
      "Ġentered": 8441,
      "Ġinvestors": 8442,
      "Ġsensitivity": 8443,
      "Ġharmon": 8444,
      "ĠOnline": 8445,
      "Ġobserving": 8446,
      "Ġfemin": 8447,
      "umbled": 8448,
      "ĠParis": 8449,
      "Ġmathematics": 8450,
      "Ġrenewable": 8451,
      "Google": 8452,
      "ÙĦ": 8453,
      "Ġpit": 8454,
      "Ġproud": 8455,
      "enter": 8456,
      "ĠTips": 8457,
      "uses": 8458,
      "acher": 8459,
      "ĠMart": 8460,
      "Ġrid": 8461,
      "Ġlisted": 8462,
      "Ġserver": 8463,
      "Ġdigit": 8464,
      "Ġnecessarily": 8465,
      "Ġsatell": 8466,
      "Ġcalculated": 8467,
      "Ġthrilling": 8468,
      "Ġdanger": 8469,
      "Ġdecline": 8470,
      "Ġpushing": 8471,
      "Ġcryst": 8472,
      "Ġcandidates": 8473,
      "Ġtapestry": 8474,
      "CC": 8475,
      "UT": 8476,
      "sal": 8477,
      "Ġtough": 8478,
      "Ġsaving": 8479,
      "alities": 8480,
      "isk": 8481,
      "Ġfiber": 8482,
      "Ġbol": 8483,
      "Ġspoken": 8484,
      "Ġunn": 8485,
      "Ġactors": 8486,
      "Ġherbs": 8487,
      "ĠWeb": 8488,
      "ĠProper": 8489,
      "Ġzones": 8490,
      "ĠBeing": 8491,
      "Ġreflects": 8492,
      "Ġjoined": 8493,
      "ĠIdentify": 8494,
      "æľī": 8495,
      "Ġceremon": 8496,
      "Just": 8497,
      "move": 8498,
      "ç¬": 8499,
      "Ġmir": 8500,
      "ĠMah": 8501,
      "Ġintake": 8502,
      "Ġdisaster": 8503,
      "Ġdisabilities": 8504,
      "ĠOh": 8505,
      "ĠOx": 8506,
      "Ġscr": 8507,
      "Ġcamera": 8508,
      "ĠGrade": 8509,
      "****************": 8510,
      "Ġfinger": 8511,
      "Ġvertical": 8512,
      "di": 8513,
      "åĨ": 8514,
      "Ġturtle": 8515,
      "erior": 8516,
      "aled": 8517,
      "args": 8518,
      "Ġstated": 8519,
      "Ġans": 8520,
      "Ġdeals": 8521,
      "ĠHall": 8522,
      "eck": 8523,
      "ĠOpen": 8524,
      "Ġperpet": 8525,
      "oven": 8526,
      "Ġvarieties": 8527,
      "enges": 8528,
      "Ġidentification": 8529,
      "Ġpaths": 8530,
      "Ġdemonstrates": 8531,
      "Ġdegrad": 8532,
      "Ġachievements": 8533,
      "!!": 8534,
      "]=": 8535,
      "bor": 8536,
      "bar": 8537,
      "writing": 8538,
      "Ġsight": 8539,
      "Ġdates": 8540,
      "Ġum": 8541,
      "ĠOper": 8542,
      "Ġdipl": 8543,
      "Ġmembran": 8544,
      "Ġeconomies": 8545,
      "Ġdetermining": 8546,
      "ĠThroughout": 8547,
      "Ġrobots": 8548,
      "Ġfitness": 8549,
      "Ġaccepted": 8550,
      "Ġstimul": 8551,
      "Ġpartnerships": 8552,
      "ĠScholar": 8553,
      "'],": 8554,
      "66": 8555,
      "how": 8556,
      "uels": 8557,
      "Ġhob": 8558,
      "Ġnose": 8559,
      "ĠTurn": 8560,
      "rypt": 8561,
      "Ġrelate": 8562,
      "Ġattempts": 8563,
      "Ġdioxide": 8564,
      "Ġprofessor": 8565,
      "gener": 8566,
      "Ġtexture": 8567,
      "Ġenjoying": 8568,
      "ĠGuid": 8569,
      "Ġcovering": 8570,
      "Ġhusband": 8571,
      "%.": 8572,
      "oom": 8573,
      "attle": 8574,
      "storm": 8575,
      "ima": 8576,
      "olesc": 8577,
      "irty": 8578,
      "ĠBack": 8579,
      "Ġcha": 8580,
      "ĠNations": 8581,
      "ells": 8582,
      "Ġclient": 8583,
      "ateral": 8584,
      "Ġ-=": 8585,
      "Ġcovers": 8586,
      "ircraft": 8587,
      "Ġrespectively": 8588,
      "Ġtransformed": 8589,
      "Ġdemonstrating": 8590,
      "Ġspreading": 8591,
      "Class": 8592,
      "Ġlinguistic": 8593,
      "OW": 8594,
      "Ret": 8595,
      "Wor": 8596,
      "cultural": 8597,
      "dep": 8598,
      "rt": 8599,
      "â£": 8600,
      "usc": 8601,
      "aked": 8602,
      "Ġedges": 8603,
      "Ġdelicate": 8604,
      "ĠAnaly": 8605,
      "Ġfinished": 8606,
      "Ġcalories": 8607,
      "ĠOften": 8608,
      "Ġcontrolling": 8609,
      "ĠTHE": 8610,
      "UM": 8611,
      "Ã¼": 8612,
      "Ð¿": 8613,
      "Ġtong": 8614,
      "Ġbiodiversity": 8615,
      "Ġdust": 8616,
      "Ġdys": 8617,
      "omatic": 8618,
      "ĠBur": 8619,
      "ĠHum": 8620,
      "ĠOF": 8621,
      "screen": 8622,
      "Ġstatements": 8623,
      "Ġoriginally": 8624,
      "ĠOnly": 8625,
      "Ġpayment": 8626,
      "Ġtissues": 8627,
      "Ġchromos": 8628,
      "ĠCommittee": 8629,
      "Num": 8630,
      "host": 8631,
      "Ġpapers": 8632,
      "Ġblow": 8633,
      "Ġease": 8634,
      "stack": 8635,
      "idx": 8636,
      "ĠSing": 8637,
      "ocial": 8638,
      "ulty": 8639,
      "ĠChange": 8640,
      "ĠYes": 8641,
      "Ġacting": 8642,
      "Ġparagraph": 8643,
      "Ġsupportive": 8644,
      "Ġinfluential": 8645,
      "Ġcardiovascular": 8646,
      "Ġhospitals": 8647,
      "'m": 8648,
      "Cons": 8649,
      "mean": 8650,
      "west": 8651,
      "}\")": 8652,
      "ref": 8653,
      "Ġbaking": 8654,
      "Ġdrain": 8655,
      "Ġgal": 8656,
      "ĠSen": 8657,
      "Ġwhatever": 8658,
      "Ġrh": 8659,
      "Ġintensity": 8660,
      "Ġshad": 8661,
      "Ġadvert": 8662,
      "Ġuncom": 8663,
      "Ġdiscourse": 8664,
      "ĠVir": 8665,
      "Ġdevelopers": 8666,
      "Ġinsulin": 8667,
      "ĠSpirit": 8668,
      "Ġdirections": 8669,
      "ĠCommunication": 8670,
      "Ġbelonging": 8671,
      "Ġboiler": 8672,
      "Ġofficials": 8673,
      "ĠProfessor": 8674,
      "ĠAvoid": 8675,
      "ĠConnect": 8676,
      "Lear": 8677,
      "zheimer": 8678,
      "eday": 8679,
      "ĠType": 8680,
      "Ġhaven": 8681,
      "izz": 8682,
      "enders": 8683,
      "Ġcompens": 8684,
      "Ġaging": 8685,
      "Ġdecay": 8686,
      "Ġdesigners": 8687,
      "Ġendless": 8688,
      "Ġdemocracy": 8689,
      "Stud": 8690,
      "ĠCarol": 8691,
      "ĠRetrieved": 8692,
      "Ġenterpr": 8693,
      "ĠRelations": 8694,
      "Ġburning": 8695,
      "ĠAcad": 8696,
      "Ġinsects": 8697,
      "ĠRobert": 8698,
      "ĠCatholic": 8699,
      "ĠFlorida": 8700,
      "ncy": 8701,
      "sys": 8702,
      "taking": 8703,
      "vals": 8704,
      "Ġwelfare": 8705,
      "Ġrivers": 8706,
      "âĢĻ.": 8707,
      "exist": 8708,
      "Ġentering": 8709,
      "Ġmanagers": 8710,
      "Ġgoverning": 8711,
      "Ġmarks": 8712,
      "Ġinputs": 8713,
      "Ġfriendship": 8714,
      "ĠColumb": 8715,
      "Ġtraveling": 8716,
      "Ġportray": 8717,
      "Ġfairly": 8718,
      "Ġhorse": 8719,
      "olester": 8720,
      "Ġsacr": 8721,
      "CL": 8722,
      "OP": 8723,
      "Part": 8724,
      "loc": 8725,
      "pace": 8726,
      "rine": 8727,
      "Ġepid": 8728,
      "sters": 8729,
      "ĠPet": 8730,
      "aped": 8731,
      "ĠNext": 8732,
      "Ġdispl": 8733,
      "Ġsculpt": 8734,
      "Ġdefect": 8735,
      "Ġsomeday": 8736,
      "Ġsensors": 8737,
      "Ġparticipating": 8738,
      "initely": 8739,
      "Ġpaying": 8740,
      "Ġphotography": 8741,
      "ĠAssess": 8742,
      "Ġmagnetic": 8743,
      "Ġpowder": 8744,
      "Ġprosper": 8745,
      "Ġelder": 8746,
      "Up": 8747,
      "Ġtank": 8748,
      "Ġpure": 8749,
      "Ġfif": 8750,
      "Ġmamm": 8751,
      "Ġhole": 8752,
      "Ġnan": 8753,
      "Ġvig": 8754,
      "this": 8755,
      "ĠForest": 8756,
      "ĠFamily": 8757,
      "ĠThough": 8758,
      "clusive": 8759,
      "Ġrocks": 8760,
      "ensus": 8761,
      "ĠImpro": 8762,
      "Ġcombines": 8763,
      "ĠSuper": 8764,
      ")**": 8765,
      "85": 8766,
      "Me": 8767,
      "eem": 8768,
      "Ø§": 8769,
      "ĠÑ": 8770,
      "orter": 8771,
      "itter": 8772,
      "Ġpull": 8773,
      "Ġduration": 8774,
      "img": 8775,
      "Ġgathered": 8776,
      "âĢĺ": 8777,
      "ĠAR": 8778,
      "qual": 8779,
      "Ġ1000": 8780,
      "Ġneither": 8781,
      "Ġimaging": 8782,
      "Ġinclusion": 8783,
      "Ġdistract": 8784,
      "Ġgrains": 8785,
      "Ġended": 8786,
      "Ġclassical": 8787,
      "iox": 8788,
      "Ġsafer": 8789,
      "Ġdriven": 8790,
      "isticated": 8791,
      "Ġfailed": 8792,
      "Ġreplaced": 8793,
      "Ġsatisfaction": 8794,
      "Ġupdated": 8795,
      "imensional": 8796,
      "Ġtutorial": 8797,
      "olesterol": 8798,
      "bul": 8799,
      "oj": 8800,
      "pay": 8801,
      "Ġfet": 8802,
      "opy": 8803,
      "Ġneck": 8804,
      "Ġspots": 8805,
      "Ġresid": 8806,
      "ĠGraph": 8807,
      "ĠStory": 8808,
      "Ġraising": 8809,
      "Ġproved": 8810,
      "ĠVe": 8811,
      "Ġdevast": 8812,
      "Ġdirector": 8813,
      "Ġcrack": 8814,
      "Ġsurprising": 8815,
      "Ġassigned": 8816,
      "ĠKorea": 8817,
      "Ġentertainment": 8818,
      "Am": 8819,
      "Every": 8820,
      "Le": 8821,
      "iary": 8822,
      "you": 8823,
      "zen": 8824,
      "Ġthesis": 8825,
      "Ġpra": 8826,
      "sts": 8827,
      "stud": 8828,
      "Ġnob": 8829,
      "eting": 8830,
      "ĠMind": 8831,
      "Ġsuit": 8832,
      "rier": 8833,
      "earing": 8834,
      "arming": 8835,
      "ĠAdminist": 8836,
      "ĠWithin": 8837,
      "Ġmindfulness": 8838,
      "atching": 8839,
      "Ġbias": 8840,
      "iki": 8841,
      "Ġmechanical": 8842,
      "ĠJohnson": 8843,
      "Ġtackle": 8844,
      "å¯¹": 8845,
      "87": 8846,
      "isition": 8847,
      "ĠDid": 8848,
      "Ġusual": 8849,
      "Ġune": 8850,
      "aval": 8851,
      "Ġproduces": 8852,
      "Ġflight": 8853,
      "azine": 8854,
      "Ġrepresentations": 8855,
      "Ġhygien": 8856,
      "Ġroute": 8857,
      "Ġhypothes": 8858,
      "Ġterritory": 8859,
      "ĠEmpire": 8860,
      "ĠLibrary": 8861,
      "ĠDisease": 8862,
      "95": 8863,
      "Hist": 8864,
      "MP": 8865,
      "rons": 8866,
      "íķ": 8867,
      "Ġcodes": 8868,
      "oted": 8869,
      "ĠCirc": 8870,
      "ĠPass": 8871,
      "ĠRole": 8872,
      "Ġcompos": 8873,
      "Ġclar": 8874,
      "()`": 8875,
      "Ġfung": 8876,
      "Ġprotagon": 8877,
      "Ġmultif": 8878,
      "Ġmountains": 8879,
      "Ġillnesses": 8880,
      "Ġaxis": 8881,
      "ĠDifferent": 8882,
      "ĠTrends": 8883,
      "ĠScottish": 8884,
      "ciplinary": 8885,
      "Ġbustling": 8886,
      ":]": 8887,
      "=(": 8888,
      "dig": 8889,
      "Ġwra": 8890,
      "Ġfro": 8891,
      "ĠMer": 8892,
      "ĠMill": 8893,
      "ĠWhere": 8894,
      "Ġshut": 8895,
      "ĠLead": 8896,
      "Ġfever": 8897,
      "Ġinterf": 8898,
      "Ġdrinks": 8899,
      "Ġintegral": 8900,
      "Ġbiology": 8901,
      "Ġswitch": 8902,
      "Ġmeasurements": 8903,
      "ĠReport": 8904,
      "Ġmolecular": 8905,
      "ĠSpecial": 8906,
      "Ġsophisticated": 8907,
      "FT": 8908,
      "Pe": 8909,
      "made": 8910,
      "å¼": 8911,
      "Ġaircraft": 8912,
      "Ġwel": 8913,
      "agers": 8914,
      "ĠBest": 8915,
      "ocate": 8916,
      "ĠFil": 8917,
      "everal": 8918,
      "Ġautism": 8919,
      "Ġende": 8920,
      "Ġclassification": 8921,
      "ĠAlways": 8922,
      "Ġ2001": 8923,
      "Ġimmense": 8924,
      "Ġdietary": 8925,
      "doi": 8926,
      "################": 8927,
      "ĠUtil": 8928,
      "åĽ": 8929,
      "ç±": 8930,
      "Ġtk": 8931,
      "Ġlip": 8932,
      "url": 8933,
      "utical": 8934,
      "ĠTop": 8935,
      "irds": 8936,
      "abin": 8937,
      "ivities": 8938,
      "ĠMath": 8939,
      "ĠTheory": 8940,
      "aping": 8941,
      "Ġuniform": 8942,
      "avy": 8943,
      "Ġapparent": 8944,
      "ĠJo": 8945,
      "Ġpreservation": 8946,
      "Ġartwork": 8947,
      "Ġbeloved": 8948,
      "Ġcriticism": 8949,
      "ĠOrig": 8950,
      "Ġtransformative": 8951,
      "Ġdebt": 8952,
      "Ġdivine": 8953,
      "Ġinvestigate": 8954,
      "Ġassumptions": 8955,
      "Ġfingers": 8956,
      "Ġcorporate": 8957,
      "CD": 8958,
      "Figure": 8959,
      "Sim": 8960,
      "har": 8961,
      "high": 8962,
      "tage": 8963,
      "onent": 8964,
      "Ġtoler": 8965,
      "omach": 8966,
      "Ġloyal": 8967,
      "ĠIran": 8968,
      "Ġhem": 8969,
      "Ġenum": 8970,
      "Ġworship": 8971,
      "Ġplus": 8972,
      "ĠUr": 8973,
      "Ġfinds": 8974,
      "Ġenduring": 8975,
      "ĠAlzheimer": 8976,
      "Ġneglect": 8977,
      "Ġtourism": 8978,
      "Ġlegislation": 8979,
      "ĠReturns": 8980,
      "Ġgenuine": 8981,
      "ç±»": 8982,
      "tree": 8983,
      "inity": 8984,
      "Ġcuisine": 8985,
      "Ġflying": 8986,
      "Ġbag": 8987,
      "Ġbath": 8988,
      "stop": 8989,
      "Ġstrain": 8990,
      "ĠBr": 8991,
      "soft": 8992,
      "Ġspecified": 8993,
      "Ġcurrency": 8994,
      "Ġcultivating": 8995,
      "aware": 8996,
      "Ġchecking": 8997,
      "Ġconfront": 8998,
      "Ġmarried": 8999,
      "ĠCancer": 9000,
      "Ġlikelihood": 9001,
      "ridge": 9002,
      "Ġevaluating": 9003,
      "Ġstrike": 9004,
      "Ġrelaxation": 9005,
      "æĸ¹": 9006,
      "iotics": 9007,
      "Ġchicken": 9008,
      "Ġstreets": 9009,
      "AA": 9010,
      "HD": 9011,
      "Sec": 9012,
      "Type": 9013,
      "Ġtor": 9014,
      "oning": 9015,
      "atile": 9016,
      "Ġmold": 9017,
      "ĠSil": 9018,
      "ĠIll": 9019,
      "acco": 9020,
      "ĠGr": 9021,
      "Ġuniversity": 9022,
      "Ġagent": 9023,
      "Ġpersu": 9024,
      "Ġobservation": 9025,
      "Expl": 9026,
      "ĠRecogn": 9027,
      "Ġperfectly": 9028,
      "Ġrooted": 9029,
      "Ġreviews": 9030,
      "Ġaccompan": 9031,
      "Ġadvocate": 9032,
      "Ġiconic": 9033,
      "Ġcrafting": 9034,
      "ĠJoseph": 9035,
      ")/": 9036,
      "RA": 9037,
      "kin": 9038,
      "Ġabnormal": 9039,
      "phones": 9040,
      "Ġrelation": 9041,
      "Ġ32": 9042,
      "Ġskilled": 9043,
      "clear": 9044,
      "Ð¸Ñģ": 9045,
      "Ġgarlic": 9046,
      "è¾ĵ": 9047,
      "46": 9048,
      "Var": 9049,
      "avery": 9050,
      "iations": 9051,
      "oids": 9052,
      "rink": 9053,
      "erts": 9054,
      "env": 9055,
      "Ġcas": 9056,
      "Ġpup": 9057,
      "oli": 9058,
      "chain": 9059,
      "Ġaside": 9060,
      "Ġenemy": 9061,
      "Ġrating": 9062,
      "ĠWood": 9063,
      "ĠEnd": 9064,
      "rize": 9065,
      "assment": 9066,
      "Ġjuris": 9067,
      "Ġperse": 9068,
      "Ġquery": 9069,
      "airy": 9070,
      "ĠCanadian": 9071,
      "Ġmenu": 9072,
      "åĪĹ": 9073,
      "Ġrecipe": 9074,
      "ĠServices": 9075,
      "Ġpygame": 9076,
      "Ġaccomplish": 9077,
      "called": 9078,
      "Ġsafeguard": 9079,
      "ĠVictor": 9080,
      "05": 9081,
      "86": 9082,
      "Fe": 9083,
      "Other": 9084,
      "bol": 9085,
      "craft": 9086,
      "sit": 9087,
      "ãĥ": 9088,
      "omin": 9089,
      "omed": 9090,
      "Ġnone": 9091,
      "Ġstroke": 9092,
      "Ġexempl": 9093,
      "Ġven": 9094,
      "Ġcholesterol": 9095,
      "ĠFunction": 9096,
      "Ġships": 9097,
      "ĠLin": 9098,
      "ello": 9099,
      "Ġpersons": 9100,
      "inked": 9101,
      "ercise": 9102,
      "Ġenhances": 9103,
      "Ġverb": 9104,
      "Ġisolation": 9105,
      "iblical": 9106,
      "Ġencountered": 9107,
      "Ġrevenue": 9108,
      "ampling": 9109,
      ":*": 9110,
      "Che": 9111,
      "Tr": 9112,
      "Ġtons": 9113,
      "Ġfats": 9114,
      "Ġmoon": 9115,
      "igm": 9116,
      "Ġcann": 9117,
      "ĠFisher": 9118,
      "ĠEnt": 9119,
      "ĠOcean": 9120,
      "aceutical": 9121,
      "Ġhumor": 9122,
      "Ġstrongly": 9123,
      "Ġjudgment": 9124,
      "Ġpropag": 9125,
      "Ġpreferred": 9126,
      "ĠOrganization": 9127,
      "Ġimmigration": 9128,
      "Ġescape": 9129,
      "ioxid": 9130,
      "win": 9131,
      "onal": 9132,
      "isely": 9133,
      "ĠTimes": 9134,
      "irms": 9135,
      "ĠSouthern": 9136,
      "ĠMen": 9137,
      "ĠDet": 9138,
      "ĠLow": 9139,
      "Ġrecover": 9140,
      "ĠChild": 9141,
      "Ġcomplement": 9142,
      "Ġresem": 9143,
      "Ġmultipl": 9144,
      "Ġmarvel": 9145,
      "ÑĤÐµ": 9146,
      "Ġcoping": 9147,
      "Ġinterpretations": 9148,
      "Ġcoordinates": 9149,
      "Ġexplaining": 9150,
      "Ġhabitats": 9151,
      "Ġinfluencing": 9152,
      "Ġequivalent": 9153,
      "mm": 9154,
      "Ġgif": 9155,
      "quir": 9156,
      "ĠLo": 9157,
      "Ġarmy": 9158,
      "Ġremoval": 9159,
      "Ġcurr": 9160,
      "Ġhistories": 9161,
      "pson": 9162,
      "ĠShould": 9163,
      "IDS": 9164,
      "Ġcycles": 9165,
      "ĠSecurity": 9166,
      "Ġtherapies": 9167,
      "ĠHelp": 9168,
      "Ġdiscipline": 9169,
      "Ġshelter": 9170,
      "Ġwarning": 9171,
      "Ġtuple": 9172,
      "ĠMicro": 9173,
      "Ġconcentrations": 9174,
      "Ġundersc": 9175,
      "Ġtransparency": 9176,
      "'):": 9177,
      "Man": 9178,
      "Max": 9179,
      "aired": 9180,
      "human": 9181,
      "Ġtight": 9182,
      "uten": 9183,
      "ami": 9184,
      "ĠSustain": 9185,
      "ĠJack": 9186,
      "Ġeffic": 9187,
      "Ġ31": 9188,
      "Ġprinting": 9189,
      "Ġoblig": 9190,
      "Ġcarbohy": 9191,
      "Ġbrush": 9192,
      "Ġfunctionality": 9193,
      "Ġ{'": 9194,
      "Ġforever": 9195,
      "Ġintroducing": 9196,
      "Ġdiscovering": 9197,
      "Ġpredictions": 9198,
      "peare": 9199,
      "Ġdoubt": 9200,
      "Ġimmigrants": 9201,
      "Ġorientation": 9202,
      "Ġworkshops": 9203,
      "books": 9204,
      "Ġcm": 9205,
      "itz": 9206,
[...]
